{
  "version": "1.0",
  "truncation": null,
  "padding": null,
  "added_tokens": [
    {
      "id": 0,
      "content": "[PAD]",
      "single_word": false,
      "lstrip": false,
      "rstrip": false,
      "normalized": false,
      "special": true
    },
    {
      "id": 1,
      "content": "[UNK]",
      "single_word": false,
      "lstrip": false,
      "rstrip": false,
      "normalized": false,
      "special": true
    },
    {
      "id": 2,
      "content": "[CLS]",
      "single_word": false,
      "lstrip": false,
      "rstrip": false,
      "normalized": false,
      "special": true
    },
    {
      "id": 3,
      "content": "[SEP]",
      "single_word": false,
      "lstrip": false,
      "rstrip": false,
      "normalized": false,
      "special": true
    },
    {
      "id": 4,
      "content": "[MASK]",
      "single_word": false,
      "lstrip": false,
      "rstrip": false,
      "normalized": false,
      "special": true
    }
  ],
  "normalizer": null,
  "pre_tokenizer": {
    "type": "ByteLevel",
    "add_prefix_space": true,
    "trim_offsets": true,
    "use_regex": true
  },
  "post_processor": {
    "type": "ByteLevel",
    "add_prefix_space": true,
    "trim_offsets": false,
    "use_regex": true
  },
  "decoder": {
    "type": "ByteLevel",
    "add_prefix_space": true,
    "trim_offsets": true,
    "use_regex": true
  },
  "model": {
    "type": "BPE",
    "dropout": null,
    "unk_token": "[UNK]",
    "continuing_subword_prefix": null,
    "end_of_word_suffix": null,
    "fuse_unk": false,
    "byte_fallback": false,
    "ignore_merges": false,
    "vocab": {
      "[PAD]": 0,
      "[UNK]": 1,
      "[CLS]": 2,
      "[SEP]": 3,
      "[MASK]": 4,
      "!": 5,
      "\"": 6,
      "#": 7,
      "$": 8,
      "%": 9,
      "&": 10,
      "'": 11,
      "(": 12,
      ")": 13,
      "*": 14,
      "+": 15,
      ",": 16,
      "-": 17,
      ".": 18,
      "/": 19,
      "0": 20,
      "1": 21,
      "2": 22,
      "3": 23,
      "4": 24,
      "5": 25,
      "6": 26,
      "7": 27,
      "8": 28,
      "9": 29,
      ":": 30,
      ";": 31,
      "<": 32,
      "=": 33,
      ">": 34,
      "?": 35,
      "@": 36,
      "A": 37,
      "B": 38,
      "C": 39,
      "D": 40,
      "E": 41,
      "F": 42,
      "G": 43,
      "H": 44,
      "I": 45,
      "J": 46,
      "K": 47,
      "L": 48,
      "M": 49,
      "N": 50,
      "O": 51,
      "P": 52,
      "Q": 53,
      "R": 54,
      "S": 55,
      "T": 56,
      "U": 57,
      "V": 58,
      "W": 59,
      "X": 60,
      "Y": 61,
      "Z": 62,
      "[": 63,
      "\\": 64,
      "]": 65,
      "^": 66,
      "_": 67,
      "`": 68,
      "a": 69,
      "b": 70,
      "c": 71,
      "d": 72,
      "e": 73,
      "f": 74,
      "g": 75,
      "h": 76,
      "i": 77,
      "j": 78,
      "k": 79,
      "l": 80,
      "m": 81,
      "n": 82,
      "o": 83,
      "p": 84,
      "q": 85,
      "r": 86,
      "s": 87,
      "t": 88,
      "u": 89,
      "v": 90,
      "w": 91,
      "x": 92,
      "y": 93,
      "z": 94,
      "|": 95,
      "}": 96,
      "~": 97,
      "¡": 98,
      "¢": 99,
      "£": 100,
      "¤": 101,
      "¥": 102,
      "¦": 103,
      "§": 104,
      "¨": 105,
      "©": 106,
      "ª": 107,
      "«": 108,
      "¬": 109,
      "®": 110,
      "¯": 111,
      "°": 112,
      "±": 113,
      "²": 114,
      "³": 115,
      "´": 116,
      "µ": 117,
      "¶": 118,
      "·": 119,
      "¸": 120,
      "¹": 121,
      "º": 122,
      "»": 123,
      "¼": 124,
      "½": 125,
      "¾": 126,
      "¿": 127,
      "Â": 128,
      "Ã": 129,
      "Ä": 130,
      "Å": 131,
      "Æ": 132,
      "Ç": 133,
      "È": 134,
      "É": 135,
      "Ê": 136,
      "Ë": 137,
      "Ì": 138,
      "Í": 139,
      "Î": 140,
      "Ï": 141,
      "Ð": 142,
      "Ñ": 143,
      "Ò": 144,
      "Ó": 145,
      "Ô": 146,
      "Õ": 147,
      "Ö": 148,
      "×": 149,
      "Ø": 150,
      "Ù": 151,
      "Ú": 152,
      "Û": 153,
      "Ü": 154,
      "Ý": 155,
      "Þ": 156,
      "ß": 157,
      "à": 158,
      "á": 159,
      "â": 160,
      "ã": 161,
      "ä": 162,
      "å": 163,
      "æ": 164,
      "ç": 165,
      "è": 166,
      "é": 167,
      "ê": 168,
      "ë": 169,
      "ì": 170,
      "í": 171,
      "î": 172,
      "ï": 173,
      "ð": 174,
      "ó": 175,
      "ô": 176,
      "ĉ": 177,
      "Ċ": 178,
      "Ġ": 179,
      "Ģ": 180,
      "ģ": 181,
      "Ĥ": 182,
      "ĥ": 183,
      "Ħ": 184,
      "ħ": 185,
      "Ĩ": 186,
      "ĩ": 187,
      "Ī": 188,
      "ī": 189,
      "Ĭ": 190,
      "ĭ": 191,
      "Į": 192,
      "į": 193,
      "İ": 194,
      "ı": 195,
      "Ĳ": 196,
      "ĳ": 197,
      "Ĵ": 198,
      "ĵ": 199,
      "Ķ": 200,
      "ķ": 201,
      "ĸ": 202,
      "Ĺ": 203,
      "ĺ": 204,
      "Ļ": 205,
      "ļ": 206,
      "Ľ": 207,
      "ľ": 208,
      "Ŀ": 209,
      "ŀ": 210,
      "Ł": 211,
      "ł": 212,
      "Ń": 213,
      "Ġt": 214,
      "Ġa": 215,
      "in": 216,
      "he": 217,
      "re": 218,
      "on": 219,
      "Ġthe": 220,
      "er": 221,
      "Ġs": 222,
      "Ġw": 223,
      "at": 224,
      "Ġo": 225,
      "nd": 226,
      "Ġc": 227,
      "it": 228,
      "or": 229,
      "es": 230,
      "ou": 231,
      "is": 232,
      "en": 233,
      "Ġf": 234,
      "ing": 235,
      "Ġb": 236,
      "Ġp": 237,
      "an": 238,
      "ed": 239,
      "al": 240,
      "Ġto": 241,
      "Ġm": 242,
      "ar": 243,
      "Ġand": 244,
      "Ġof": 245,
      "Ġin": 246,
      "Ġd": 247,
      "ic": 248,
      "le": 249,
      "Ġh": 250,
      "as": 251,
      "om": 252,
      "ion": 253,
      "Ġth": 254,
      "âĢ": 255,
      "ll": 256,
      "ent": 257,
      "Ġl": 258,
      "ve": 259,
      "Ġe": 260,
      "st": 261,
      "Ġre": 262,
      "ro": 263,
      "Ġn": 264,
      "Ġy": 265,
      "Ġg": 266,
      "ly": 267,
      "ĠI": 268,
      "ct": 269,
      "et": 270,
      "ĠT": 271,
      "Ġyou": 272,
      "Ġbe": 273,
      "Ġis": 274,
      "ut": 275,
      "ĠS": 276,
      "ot": 277,
      "id": 278,
      "Ġon": 279,
      "Ġfor": 280,
      "ay": 281,
      "ow": 282,
      "ur": 283,
      "ĠA": 284,
      "ĠC": 285,
      "se": 286,
      "im": 287,
      "ce": 288,
      "ig": 289,
      "ad": 290,
      "am": 291,
      "ver": 292,
      "Ġthat": 293,
      "Ġu": 294,
      "ch": 295,
      "il": 296,
      "ith": 297,
      "ation": 298,
      "Ġst": 299,
      "ol": 300,
      "âĢĻ": 301,
      "ir": 302,
      "Ġwith": 303,
      "ĠM": 304,
      "Ġit": 305,
      "Ġhe": 306,
      "Ġwe": 307,
      "ra": 308,
      "ĠP": 309,
      "Ġan": 310,
      "ĠB": 311,
      "Ġas": 312,
      "Ġwh": 313,
      "ill": 314,
      "ers": 315,
      "if": 316,
      "Ġpro": 317,
      "ke": 318,
      "Ġare": 319,
      "ter": 320,
      "Ġha": 321,
      "ge": 322,
      "ĠW": 323,
      "Ġcon": 324,
      "oo": 325,
      "ld": 326,
      "her": 327,
      "ul": 328,
      "Ġor": 329,
      "ess": 330,
      "ĠH": 331,
      "ate": 332,
      "pp": 333,
      "ĠD": 334,
      "Ġcom": 335,
      "ĠThe": 336,
      "ck": 337,
      "Ġat": 338,
      "Ġse": 339,
      "ment": 340,
      "ore": 341,
      "est": 342,
      "ri": 343,
      "Ġde": 344,
      "ĠF": 345,
      "us": 346,
      "ab": 347,
      "Ġ1": 348,
      "igh": 349,
      "th": 350,
      "ĠR": 351,
      "rom": 352,
      "Ġwas": 353,
      "ist": 354,
      "Ġne": 355,
      "Ġex": 356,
      "pe": 357,
      "Ġ2": 358,
      "Ġ(": 359,
      "Ġsu": 360,
      "ant": 361,
      "ity": 362,
      "ĠL": 363,
      "qu": 364,
      "un": 365,
      "Ġv": 366,
      "res": 367,
      "ive": 368,
      "Ġyour": 369,
      "ort": 370,
      "Ġhave": 371,
      "op": 372,
      "ĠG": 373,
      "ĠâĢ": 374,
      "em": 375,
      "Ġr": 376,
      "ain": 377,
      "art": 378,
      "ĠN": 379,
      "ĠE": 380,
      "ust": 381,
      "Ġthis": 382,
      "nt": 383,
      "Ġfrom": 384,
      "Ġnot": 385,
      "um": 386,
      "el": 387,
      "Ġsh": 388,
      "os": 389,
      "Ġal": 390,
      "ies": 391,
      "Ġcan": 392,
      "and": 393,
      "Ġby": 394,
      "Ġch": 395,
      "ight": 396,
      "ome": 397,
      "Ġle": 398,
      "Ġwill": 399,
      "all": 400,
      "ĠO": 401,
      "ie": 402,
      "ard": 403,
      "out": 404,
      "ud": 405,
      "ould": 406,
      "red": 407,
      "Ġab": 408,
      "our": 409,
      "iv": 410,
      "Ġdo": 411,
      "Ġwor": 412,
      "ally": 413,
      "gh": 414,
      "od": 415,
      "te": 416,
      "ost": 417,
      "Ġpl": 418,
      "00": 419,
      "Ġall": 420,
      "rou": 421,
      "ci": 422,
      "ide": 423,
      "ĠJ": 424,
      "ast": 425,
      "Ġj": 426,
      "ak": 427,
      "ine": 428,
      "ear": 429,
      "ure": 430,
      "per": 431,
      "Ġk": 432,
      "ag": 433,
      "fe": 434,
      "Ġso": 435,
      "pt": 436,
      "'s": 437,
      "Ġhas": 438,
      "The": 439,
      "Ġwhe": 440,
      "Ġme": 441,
      "âĢĿ": 442,
      "ice": 443,
      "age": 444,
      "Ġbut": 445,
      "Ġus": 446,
      "ack": 447,
      "ction": 448,
      "Ġad": 449,
      "ther": 450,
      "Ġcomp": 451,
      "ac": 452,
      "Ġout": 453,
      "ich": 454,
      "ake": 455,
      "ook": 456,
      "Ġup": 457,
      "one": 458,
      "Ġthey": 459,
      "ind": 460,
      "ĠU": 461,
      "Ġtheir": 462,
      "are": 463,
      "so": 464,
      "Ġen": 465,
      "Ġmore": 466,
      "lo": 467,
      "ry": 468,
      "able": 469,
      "very": 470,
      "ong": 471,
      "ime": 472,
      "ated": 473,
      "cc": 474,
      "Ġte": 475,
      "ood": 476,
      "Ġmy": 477,
      "ite": 478,
      "ous": 479,
      "ip": 480,
      "iz": 481,
      "Ġone": 482,
      "ans": 483,
      "ĠTh": 484,
      "ike": 485,
      "ame": 486,
      "Ġim": 487,
      "Ġhis": 488,
      "for": 489,
      "ĠIn": 490,
      "Ġabout": 491,
      "Ġour": 492,
      "Ġsa": 493,
      "Ġwho": 494,
      "ĠâĢľ": 495,
      "Ġcont": 496,
      "ber": 497,
      "og": 498,
      "ions": 499,
      "ance": 500,
      "ru": 501,
      "Ġman": 502,
      "Ġfe": 503,
      "Ġgo": 504,
      "du": 505,
      "act": 506,
      "Ġinc": 507,
      "ĠK": 508,
      "Ġwhich": 509,
      "ne": 510,
      "Ġcl": 511,
      "ĠY": 512,
      "Ġ20": 513,
      "Ġwork": 514,
      "to": 515,
      "ia": 516,
      "Ġres": 517,
      "ire": 518,
      "ib": 519,
      "Ġapp": 520,
      "ign": 521,
      "ach": 522,
      "ase": 523,
      "ail": 524,
      "ations": 525,
      "ree": 526,
      "reat": 527,
      "ap": 528,
      "Ġlo": 529,
      "ace": 530,
      "ays": 531,
      "ep": 532,
      "ary": 533,
      "Ġper": 534,
      "ult": 535,
      "Ġother": 536,
      "ick": 537,
      "ven": 538,
      "Ġqu": 539,
      "Ġoff": 540,
      "pl": 541,
      "Ġtime": 542,
      "au": 543,
      "Ġalso": 544,
      "ical": 545,
      "ass": 546,
      "Ġlike": 547,
      "ff": 548,
      "ub": 549,
      "Ġsome": 550,
      "Ġyear": 551,
      "ĠSt": 552,
      "ile": 553,
      "Ġany": 554,
      "ue": 555,
      "ark": 556,
      "ence": 557,
      "Ġdis": 558,
      "Ġget": 559,
      "ĠIt": 560,
      "now": 561,
      "ount": 562,
      "ĠV": 563,
      "form": 564,
      "vel": 565,
      "Ġsp": 566,
      "Ġun": 567,
      "Ġthem": 568,
      "erv": 569,
      "ings": 570,
      "ĠCh": 571,
      "Ġpart": 572,
      "ress": 573,
      "Ġnew": 574,
      "..": 575,
      "Ġher": 576,
      "Ġhad": 577,
      "Ġthere": 578,
      "Ġbeen": 579,
      "Ġpe": 580,
      "Ġwere": 581,
      "ond": 582,
      "Ġ3": 583,
      "Ġag": 584,
      "ition": 585,
      "Ġover": 586,
      "Ġwhen": 587,
      "ents": 588,
      "ial": 589,
      "av": 590,
      "Ġar": 591,
      "Ġwhat": 592,
      "ough": 593,
      "ors": 594,
      "Ġif": 595,
      "Ġwould": 596,
      "ink": 597,
      "Ġtr": 598,
      "Ġ\"": 599,
      "port": 600,
      "ens": 601,
      "ild": 602,
      "Ġpre": 603,
      "Ġro": 604,
      "Ġthan": 605,
      "Ġjust": 606,
      "Ġspe": 607,
      "Ġ-": 608,
      "ord": 609,
      "ound": 610,
      "ĠWe": 611,
      "Ġco": 612,
      "Ġbec": 613,
      "ish": 614,
      "Ġneed": 615,
      "Ġknow": 616,
      "Ġ201": 617,
      "Ġrec": 618,
      "mer": 619,
      "int": 620,
      "ople": 621,
      "wn": 622,
      "irst": 623,
      "Ġinto": 624,
      "own": 625,
      "ren": 626,
      "ĠHe": 627,
      "nder": 628,
      "Ġno": 629,
      "Ġhow": 630,
      "Ġacc": 631,
      "Ġsc": 632,
      "ory": 633,
      "fter": 634,
      "ater": 635,
      "Ġam": 636,
      "lic": 637,
      "rough": 638,
      "ade": 639,
      "Ġsaid": 640,
      "ang": 641,
      "vers": 642,
      "Ġpeople": 643,
      "Ġits": 644,
      "ning": 645,
      "itt": 646,
      "Ġtw": 647,
      "old": 648,
      "Ġdes": 649,
      "cial": 650,
      "ose": 651,
      "lud": 652,
      "Ġshe": 653,
      "ual": 654,
      "ces": 655,
      "ĠâĢĵ": 656,
      "Ġmay": 657,
      "ons": 658,
      "Ġcomm": 659,
      "lp": 660,
      "Ġfirst": 661,
      "we": 662,
      "ause": 663,
      "ian": 664,
      "ĠThis": 665,
      "Ġmake": 666,
      "Ġfo": 667,
      "ple": 668,
      "ates": 669,
      "hed": 670,
      "Ġhelp": 671,
      "ments": 672,
      "Ġonly": 673,
      "ull": 674,
      "ric": 675,
      "les": 676,
      "Ġprov": 677,
      "Ġmost": 678,
      "Ġbet": 679,
      "Ġadd": 680,
      "Ġtra": 681,
      "rent": 682,
      "ating": 683,
      "Ġlook": 684,
      "ov": 685,
      "end": 686,
      "ft": 687,
      "Ġpo": 688,
      "Ġem": 689,
      "ily": 690,
      "Ġind": 691,
      "tern": 692,
      "Ġ4": 693,
      "Ġevery": 694,
      "Ġwant": 695,
      "Ġback": 696,
      "Ġthrough": 697,
      "ob": 698,
      "Ġinclud": 699,
      "round": 700,
      "ise": 701,
      "Ġuse": 702,
      "Ġcons": 703,
      "ious": 704,
      "Ġ19": 705,
      "Ġwell": 706,
      "Ġact": 707,
      "day": 708,
      "Ġ5": 709,
      "Ġsee": 710,
      "Ġprodu": 711,
      "Ġbu": 712,
      "'t": 713,
      "iew": 714,
      "hing": 715,
      "Ġthese": 716,
      "gr": 717,
      "ĠRe": 718,
      "ect": 719,
      "Ġunder": 720,
      "Ġtwo": 721,
      "sel": 722,
      "ities": 723,
      "fect": 724,
      "ks": 725,
      ").": 726,
      "Ġserv": 727,
      "ph": 728,
      "ove": 729,
      "iss": 730,
      "ife": 731,
      "Ġph": 732,
      "ific": 733,
      "Ġcould": 734,
      "fore": 735,
      "hen": 736,
      "Ġafter": 737,
      "Ġdif": 738,
      "pport": 739,
      "ced": 740,
      "xt": 741,
      "ew": 742,
      "Ġvery": 743,
      "ting": 744,
      "row": 745,
      "li": 746,
      "aw": 747,
      "ĠYou": 748,
      "urn": 749,
      "Ġplay": 750,
      "Ġinv": 751,
      "Ġway": 752,
      "Ġmany": 753,
      "Ġsy": 754,
      "Ġgood": 755,
      "uch": 756,
      "ful": 757,
      "ys": 758,
      "ject": 759,
      "lect": 760,
      "Ġyears": 761,
      "Ġreg": 762,
      "Ġeven": 763,
      "ts": 764,
      "iness": 765,
      "Ġpr": 766,
      "erson": 767,
      "rit": 768,
      "Ġstud": 769,
      "cess": 770,
      "als": 771,
      "ange": 772,
      "oss": 773,
      "aking": 774,
      "Ġshould": 775,
      "Ġwhere": 776,
      "Ġke": 777,
      "pect": 778,
      "Ġexper": 779,
      "Ġthen": 780,
      "Ġdec": 781,
      "Ġrem": 782,
      "oth": 783,
      "Ġra": 784,
      "ility": 785,
      "Th": 786,
      "Ġnow": 787,
      "bs": 788,
      "Ġcol": 789,
      "Ġhim": 790,
      "Ġsm": 791,
      "ont": 792,
      "Ġev": 793,
      "ational": 794,
      "Ġfl": 795,
      "ible": 796,
      "ert": 797,
      "com": 798,
      "ased": 799,
      "any": 800,
      "llow": 801,
      "ward": 802,
      "olog": 803,
      "Ġrel": 804,
      "get": 805,
      "ures": 806,
      "ĠWh": 807,
      "ool": 808,
      "Ġbecause": 809,
      "ices": 810,
      "Ġright": 811,
      "Ġdid": 812,
      "ular": 813,
      "oc": 814,
      ".âĢĿ": 815,
      "Ġstart": 816,
      "Ġown": 817,
      "Ġbus": 818,
      "Ġdown": 819,
      "ower": 820,
      "Ġac": 821,
      "Ġsec": 822,
      "erm": 823,
      "||": 824,
      "Ġdon": 825,
      "ĠAs": 826,
      "Ġgu": 827,
      "ath": 828,
      "uring": 829,
      "Ġgreat": 830,
      "ident": 831,
      "ble": 832,
      "ĠUn": 833,
      "ty": 834,
      "Ġbl": 835,
      "Ġfin": 836,
      "ĠSe": 837,
      "ract": 838,
      "its": 839,
      "Ġimp": 840,
      "Ġatt": 841,
      "hip": 842,
      "Ġent": 843,
      "Ġmuch": 844,
      "ative": 845,
      "Ġ200": 846,
      "Ġsuch": 847,
      "hes": 848,
      "alth": 849,
      "Ġthink": 850,
      "stem": 851,
      "Ġtoo": 852,
      "up": 853,
      "ĠAnd": 854,
      "formation": 855,
      "other": 856,
      "velop": 857,
      "Ġhigh": 858,
      "),": 859,
      "Ġfind": 860,
      "Ġlong": 861,
      "ĠCom": 862,
      "Ġday": 863,
      "Ġ$": 864,
      "ited": 865,
      "Ġinst": 866,
      "omet": 867,
      "line": 868,
      "ics": 869,
      "gan": 870,
      "Ġset": 871,
      "Ġtake": 872,
      "air": 873,
      "ict": 874,
      "ork": 875,
      "oy": 876,
      "Ġbest": 877,
      "Ġagain": 878,
      "Ġ6": 879,
      "arch": 880,
      "ener": 881,
      "Ġinte": 882,
      "und": 883,
      "Ġdiffe": 884,
      "Ġins": 885,
      "Ġread": 886,
      "Ġ&": 887,
      "Ġbeing": 888,
      "Ġcar": 889,
      "ĠPro": 890,
      "Ġhere": 891,
      "rib": 892,
      "cy": 893,
      "Ġbefore": 894,
      "Ġmon": 895,
      "In": 896,
      "ĠDe": 897,
      "Ġthose": 898,
      "ĠIf": 899,
      "Ġdoes": 900,
      "Ġmade": 901,
      "Ġshow": 902,
      "Ġpres": 903,
      "âĢľ": 904,
      "Ġperson": 905,
      "ied": 906,
      "amp": 907,
      "Ġmin": 908,
      "Ġend": 909,
      "ually": 910,
      "ĠAn": 911,
      "ner": 912,
      "Ġwee": 913,
      "Ġbel": 914,
      "Ġmark": 915,
      "ving": 916,
      "Ġloc": 917,
      "Ġrequ": 918,
      "Ġass": 919,
      "Ġsur": 920,
      "Ġworld": 921,
      "Ġcall": 922,
      "ved": 923,
      "Ġhome": 924,
      "Ġfam": 925,
      "chool": 926,
      "Ġbusiness": 927,
      "Ġbr": 928,
      "ason": 929,
      "Ġche": 930,
      "alk": 931,
      "ell": 932,
      "ues": 933,
      "Ġlife": 934,
      "ank": 935,
      "ix": 936,
      "ax": 937,
      "rest": 938,
      "Ġav": 939,
      "io": 940,
      "Ġsim": 941,
      "self": 942,
      "way": 943,
      "20": 944,
      "ng": 945,
      "Ġinformation": 946,
      "Ġhand": 947,
      "Ġtrans": 948,
      "ffect": 949,
      "Ġdevelop": 950,
      "gram": 951,
      "Ġmed": 952,
      "Ġlast": 953,
      "Ġdisc": 954,
      "Ġused": 955,
      "Ġ10": 956,
      "Ġsystem": 957,
      "Ġop": 958,
      "ĠFor": 959,
      "led": 960,
      "gg": 961,
      "ins": 962,
      "Ġwhile": 963,
      "ave": 964,
      "chn": 965,
      "Ġexperi": 966,
      "Ġear": 967,
      "Ġ7": 968,
      "ince": 969,
      "ather": 970,
      "Ġmem": 971,
      "Ġmod": 972,
      "Ġcre": 973,
      "ĠNew": 974,
      "Ġsub": 975,
      "ros": 976,
      "Ġart": 977,
      "ms": 978,
      "atch": 979,
      "ives": 980,
      "ness": 981,
      "Ġinter": 982,
      "Ġreally": 983,
      "Ġpol": 984,
      "ale": 985,
      "az": 986,
      "ouse": 987,
      "Ġdesign": 988,
      "Ġproduct": 989,
      "Ġlead": 990,
      "akes": 991,
      "Ġeach": 992,
      "Ġnum": 993,
      "Ġvis": 994,
      "Ġdet": 995,
      "ublic": 996,
      "ĠBut": 997,
      "We": 998,
      "cept": 999,
      "Ġaround": 1000,
      "Ġgoing": 1001,
      "imes": 1002,
      "Ġsupport": 1003,
      "ene": 1004,
      "land": 1005,
      "ines": 1006,
      "ĠSh": 1007,
      "ality": 1008,
      "ever": 1009,
      "Ġchar": 1010,
      "pr": 1011,
      "Ġcount": 1012,
      "Ġthough": 1013,
      "view": 1014,
      ",âĢĿ": 1015,
      "Ġfollow": 1016,
      "Ġprovid": 1017,
      "ĠAl": 1018,
      "Ġret": 1019,
      "Ġexp": 1020,
      "Ġsomet": 1021,
      "Ġ8": 1022,
      "ets": 1023,
      "Ġbo": 1024,
      "read": 1025,
      "Ġcour": 1026,
      "oun": 1027,
      "Ġdifferent": 1028,
      "Ġchild": 1029,
      "ize": 1030,
      "ĠSo": 1031,
      "ctions": 1032,
      "Ġcomple": 1033,
      "Ġcare": 1034,
      "riend": 1035,
      "Ġteam": 1036,
      "ween": 1037,
      "Ġcur": 1038,
      "Ġfeel": 1039,
      "Ġstill": 1040,
      "ages": 1041,
      "Ġstr": 1042,
      "Ġadv": 1043,
      "ional": 1044,
      "der": 1045,
      "roup": 1046,
      "Ġsign": 1047,
      "irect": 1048,
      "...": 1049,
      "Ġgr": 1050,
      "ustom": 1051,
      "ash": 1052,
      "Ġsk": 1053,
      "Ġcommun": 1054,
      "Ġed": 1055,
      "Ġbook": 1056,
      "ata": 1057,
      "Ġsame": 1058,
      "Ġsay": 1059,
      "ves": 1060,
      "Ġeas": 1061,
      "Ġaut": 1062,
      "Ġser": 1063,
      "ah": 1064,
      "Ġmet": 1065,
      "Ġfound": 1066,
      "ivers": 1067,
      "Ġboth": 1068,
      "Ġcle": 1069,
      "Ġpoint": 1070,
      "Ġbetween": 1071,
      "ittle": 1072,
      "Ġsl": 1073,
      "ĠThey": 1074,
      "lease": 1075,
      "Ġplace": 1076,
      "man": 1077,
      "ute": 1078,
      "ĠBe": 1079,
      "ars": 1080,
      "ĠAr": 1081,
      "meric": 1082,
      "ways": 1083,
      "Ġfree": 1084,
      "Ġfew": 1085,
      "arm": 1086,
      "Ġlot": 1087,
      "Ġimport": 1088,
      "be": 1089,
      "Ġrun": 1090,
      "ten": 1091,
      "Ġ9": 1092,
      "Ġprogram": 1093,
      "less": 1094,
      "ution": 1095,
      "Ġprof": 1096,
      ".\"": 1097,
      "Ġhapp": 1098,
      "Ġprocess": 1099,
      "ody": 1100,
      "ized": 1101,
      "Ġpur": 1102,
      "Ġthree": 1103,
      "Ġrep": 1104,
      "000": 1105,
      "Ġlove": 1106,
      "ĠLe": 1107,
      "Wh": 1108,
      "ient": 1109,
      "This": 1110,
      "ĠCl": 1111,
      "Ġhealth": 1112,
      "Ġthings": 1113,
      "Ġext": 1114,
      "Ġfun": 1115,
      "Ġlist": 1116,
      "Ġtop": 1117,
      "ired": 1118,
      "Ġform": 1119,
      "ames": 1120,
      "Ġreal": 1121,
      "ants": 1122,
      "ety": 1123,
      "Ġpost": 1124,
      "Ġlar": 1125,
      "ital": 1126,
      "ĠAd": 1127,
      "Ġstate": 1128,
      "Ġfull": 1129,
      "It": 1130,
      "the": 1131,
      "Ġplan": 1132,
      "Ġgener": 1133,
      "Ġmonth": 1134,
      "cer": 1135,
      "ton": 1136,
      "Ġlittle": 1137,
      "Ġkeep": 1138,
      "thing": 1139,
      "Ġtechn": 1140,
      "ology": 1141,
      "Ġcor": 1142,
      "ex": 1143,
      "co": 1144,
      "ailable": 1145,
      "Ġfact": 1146,
      "ross": 1147,
      "arn": 1148,
      "Ġmarket": 1149,
      "uc": 1150,
      "Ġcustom": 1151,
      "vern": 1152,
      "ĠAmeric": 1153,
      "ature": 1154,
      "Ġduring": 1155,
      "con": 1156,
      "Ġappro": 1157,
      "ĠThere": 1158,
      "Ġty": 1159,
      "Ġreport": 1160,
      "Ġcome": 1161,
      "ering": 1162,
      "Ġposs": 1163,
      "Ġusing": 1164,
      "Ġsol": 1165,
      "Ġopen": 1166,
      "Ġref": 1167,
      "bers": 1168,
      "ists": 1169,
      "rand": 1170,
      "Ġfil": 1171,
      "Ġpartic": 1172,
      "gy": 1173,
      "Ġob": 1174,
      "Ġresult": 1175,
      "ining": 1176,
      "ically": 1177,
      "Ġvar": 1178,
      "ug": 1179,
      "Ġpat": 1180,
      "ĠHow": 1181,
      "Ġfr": 1182,
      "Ġint": 1183,
      "Ġdef": 1184,
      "Ġallow": 1185,
      "ined": 1186,
      "Ġopt": 1187,
      "Ġschool": 1188,
      "ling": 1189,
      "Ġcontin": 1190,
      "iving": 1191,
      "Ġmust": 1192,
      "ock": 1193,
      "Ġsomething": 1194,
      "Ġiss": 1195,
      "Ġcompany": 1196,
      "Ġbetter": 1197,
      "Ġresp": 1198,
      "ention": 1199,
      "Ġmain": 1200,
      "Ġput": 1201,
      "Ġval": 1202,
      "Ġwithout": 1203,
      "iqu": 1204,
      "Ġinterest": 1205,
      "Ġdist": 1206,
      "Ġcent": 1207,
      "Ġalways": 1208,
      "cent": 1209,
      "Ġincluding": 1210,
      "Ġsmall": 1211,
      "Ġfriend": 1212,
      "Ġgame": 1213,
      "Ġrest": 1214,
      "Ġquest": 1215,
      "ared": 1216,
      "Ġbig": 1217,
      "loy": 1218,
      "tt": 1219,
      "ural": 1220,
      "ĠShe": 1221,
      "10": 1222,
      "ished": 1223,
      "ield": 1224,
      "uss": 1225,
      "Ġpri": 1226,
      "Ġavailable": 1227,
      "Ġpay": 1228,
      "att": 1229,
      "stand": 1230,
      "Ġwater": 1231,
      "Ġanother": 1232,
      "Ġpass": 1233,
      "Ġnext": 1234,
      "orn": 1235,
      "Ġbuild": 1236,
      "Ġconf": 1237,
      "Ġorgan": 1238,
      "Ġtry": 1239,
      "Ġeffect": 1240,
      "Ġwom": 1241,
      "âĢ¦": 1242,
      "Ġgroup": 1243,
      "Ġstand": 1244,
      "Ġfamily": 1245,
      "Ġmight": 1246,
      "Ġexperience": 1247,
      "Ġgot": 1248,
      "Ġide": 1249,
      "Ġhead": 1250,
      "Ġimportant": 1251,
      "ĠPl": 1252,
      "ik": 1253,
      "Ġtri": 1254,
      "ger": 1255,
      "ier": 1256,
      "ĠOn": 1257,
      "Ġdri": 1258,
      "oney": 1259,
      "ĠâĢĺ": 1260,
      "ploy": 1261,
      "rist": 1262,
      "Ġdata": 1263,
      "Ġincre": 1264,
      "ense": 1265,
      "Ġexam": 1266,
      "Ġnever": 1267,
      "ately": 1268,
      "Ġhard": 1269,
      "ertain": 1270,
      "Ġcr": 1271,
      "Ġrece": 1272,
      "reen": 1273,
      "Ġnumber": 1274,
      "Ġsince": 1275,
      "Ġsure": 1276,
      "ware": 1277,
      "Ġmov": 1278,
      "Ġmus": 1279,
      "me": 1280,
      "Ġproject": 1281,
      "Ġweek": 1282,
      "Ġonline": 1283,
      "Ġsecond": 1284,
      "ĠIs": 1285,
      "Ġask": 1286,
      "aj": 1287,
      "Ġproble": 1288,
      "Ġperform": 1289,
      "ision": 1290,
      "els": 1291,
      "ĠEx": 1292,
      "Ġi": 1293,
      "Ġwr": 1294,
      "ism": 1295,
      "oh": 1296,
      "cl": 1297,
      "ĠQ": 1298,
      "Ġinf": 1299,
      "Ġservice": 1300,
      "Ġold": 1301,
      "ĠInd": 1302,
      "Ġlevel": 1303,
      "Ġcost": 1304,
      "illion": 1305,
      "Ġbro": 1306,
      "ps": 1307,
      "ccess": 1308,
      "Ġpublic": 1309,
      "Ġpower": 1310,
      "ĠFr": 1311,
      "Ġdirect": 1312,
      "Ġinvest": 1313,
      "Ġve": 1314,
      "Ġable": 1315,
      "Ġclass": 1316,
      "Ġdays": 1317,
      "Ġgive": 1318,
      "Ġgrow": 1319,
      "Ġspec": 1320,
      "ted": 1321,
      "iversity": 1322,
      "ER": 1323,
      "pend": 1324,
      "ĠâĢĶ": 1325,
      "Ġbre": 1326,
      "Ġpos": 1327,
      "Ġless": 1328,
      "Ġagainst": 1329,
      "ards": 1330,
      "ral": 1331,
      "work": 1332,
      "ĠAll": 1333,
      "Ġlaw": 1334,
      ",\"": 1335,
      "Ġca": 1336,
      "Ġsit": 1337,
      "If": 1338,
      "rence": 1339,
      "Ġexpl": 1340,
      "Ġtest": 1341,
      "Ġprovide": 1342,
      "ients": 1343,
      "âĢĶ": 1344,
      "ior": 1345,
      "rol": 1346,
      "ases": 1347,
      "Ġrese": 1348,
      "ĠTo": 1349,
      "Ġlet": 1350,
      "Ġel": 1351,
      "Ġbelie": 1352,
      "Ġwin": 1353,
      "Ġ0": 1354,
      "inal": 1355,
      "ivid": 1356,
      "orm": 1357,
      "Ġorder": 1358,
      "Ġwithin": 1359,
      "ency": 1360,
      "ĠZ": 1361,
      "ered": 1362,
      "ours": 1363,
      "Ġunt": 1364,
      "19": 1365,
      "ffic": 1366,
      "Ġblo": 1367,
      "uck": 1368,
      "ĠPh": 1369,
      "ats": 1370,
      "ote": 1371,
      "ird": 1372,
      "Ġ12": 1373,
      "aut": 1374,
      "Ġservices": 1375,
      "Ġseem": 1376,
      "ĠTe": 1377,
      "Ġcurrent": 1378,
      "Ġmeet": 1379,
      "raph": 1380,
      "Ġproper": 1381,
      "ruct": 1382,
      "cing": 1383,
      "Ġlight": 1384,
      "Ġturn": 1385,
      "ann": 1386,
      "ĠBl": 1387,
      "Ġest": 1388,
      "Ġaccess": 1389,
      "here": 1390,
      "Ġhum": 1391,
      "ĠCon": 1392,
      "Ġprev": 1393,
      "Ġoper": 1394,
      "gin": 1395,
      "Ġ.": 1396,
      "Ġeng": 1397,
      "Ġsupp": 1398,
      "Ġ'": 1399,
      "ably": 1400,
      "ently": 1401,
      "Ġ18": 1402,
      "Ġprom": 1403,
      "ission": 1404,
      "Ġleg": 1405,
      "pos": 1406,
      "Ġdi": 1407,
      "eng": 1408,
      "pped": 1409,
      "Ġpop": 1410,
      "Ġprote": 1411,
      "ider": 1412,
      "ember": 1413,
      "ok": 1414,
      "ised": 1415,
      "Ġwebs": 1416,
      "50": 1417,
      "Ġmaking": 1418,
      "outh": 1419,
      "Ġworking": 1420,
      "Ġtoday": 1421,
      "Ġaddition": 1422,
      "ron": 1423,
      "Ġfood": 1424,
      "ration": 1425,
      "ains": 1426,
      "med": 1427,
      "ium": 1428,
      "Ġaway": 1429,
      "Ġarea": 1430,
      "ator": 1431,
      "pping": 1432,
      "ĠTr": 1433,
      "ĠUS": 1434,
      "Ġgovern": 1435,
      "Ġfour": 1436,
      "ĠThat": 1437,
      "Ġchildren": 1438,
      "ec": 1439,
      "ĠCol": 1440,
      "atter": 1441,
      "Ġann": 1442,
      "Ġview": 1443,
      "ĠSp": 1444,
      "Ġequ": 1445,
      "Ġsays": 1446,
      "ott": 1447,
      "Ġspecial": 1448,
      "Ġsing": 1449,
      "Ġgl": 1450,
      "Ġjob": 1451,
      "Ġcase": 1452,
      "oint": 1453,
      ".,": 1454,
      "ified": 1455,
      "Ġdem": 1456,
      "He": 1457,
      "Ġbeh": 1458,
      "omm": 1459,
      "ret": 1460,
      "Ġmoney": 1461,
      "Ġcap": 1462,
      "Ġlooking": 1463,
      "iron": 1464,
      "ĠCo": 1465,
      "ills": 1466,
      "ream": 1467,
      "Ġintern": 1468,
      "ential": 1469,
      "Ġpract": 1470,
      "tend": 1471,
      "ability": 1472,
      "Ġsal": 1473,
      "ured": 1474,
      "Ġtru": 1475,
      "Ġchange": 1476,
      "iting": 1477,
      "Ġvide": 1478,
      "Ġthing": 1479,
      "ina": 1480,
      "Ġpresent": 1481,
      "ĠOr": 1482,
      "Ġunderstand": 1483,
      "ĠComm": 1484,
      "ording": 1485,
      "ley": 1486,
      "Ġstudents": 1487,
      "Ġchang": 1488,
      "Ġlocal": 1489,
      "Ġcourse": 1490,
      "You": 1491,
      "Ġphot": 1492,
      "Ġimpro": 1493,
      "hor": 1494,
      "ids": 1495,
      "Ġuntil": 1496,
      "Ġwhy": 1497,
      "Ġprofess": 1498,
      "ead": 1499,
      "ify": 1500,
      "Ġsite": 1501,
      "por": 1502,
      "cus": 1503,
      "ury": 1504,
      "Ġfac": 1505,
      "ization": 1506,
      "ĠMan": 1507,
      "Ġhist": 1508,
      "ope": 1509,
      "Ġbas": 1510,
      "Ġconst": 1511,
      "Ġlarge": 1512,
      "Ġroom": 1513,
      "Ġnight": 1514,
      "joy": 1515,
      "arent": 1516,
      "ories": 1517,
      "Ġpast": 1518,
      "aring": 1519,
      "ĠChrist": 1520,
      "ĠWhen": 1521,
      "sh": 1522,
      "agement": 1523,
      "Ġactiv": 1524,
      "icle": 1525,
      "ney": 1526,
      "ump": 1527,
      "Ġsuccess": 1528,
      "Ġkind": 1529,
      "itions": 1530,
      "ĠRes": 1531,
      "Ġoften": 1532,
      "orth": 1533,
      "Ġword": 1534,
      "Ġemploy": 1535,
      "iven": 1536,
      "lection": 1537,
      "enef": 1538,
      "ots": 1539,
      "Ġapplic": 1540,
      "Ġdr": 1541,
      "Ġindust": 1542,
      "of": 1543,
      "Ġair": 1544,
      "ww": 1545,
      "gether": 1546,
      "ising": 1547,
      "bo": 1548,
      "ĠGod": 1549,
      "lish": 1550,
      "Ġtogether": 1551,
      "IN": 1552,
      "Ġwrit": 1553,
      "Ġcheck": 1554,
      "Ġtimes": 1555,
      "Ġlearn": 1556,
      "Ġexpect": 1557,
      "augh": 1558,
      "Ġhaving": 1559,
      "ĠWhat": 1560,
      "min": 1561,
      "Ġdev": 1562,
      "utes": 1563,
      "Ġevent": 1564,
      "Ġterm": 1565,
      "Ġname": 1566,
      "soci": 1567,
      "ries": 1568,
      "Ġcreat": 1569,
      "ĠCent": 1570,
      "As": 1571,
      "Ġcond": 1572,
      "Ġcomplete": 1573,
      "load": 1574,
      "by": 1575,
      "ĠMar": 1576,
      "ĠSc": 1577,
      "30": 1578,
      "Ġtreat": 1579,
      "ged": 1580,
      "conom": 1581,
      "ividual": 1582,
      "ived": 1583,
      "Ġoffer": 1584,
      "Ġdra": 1585,
      "itive": 1586,
      "Ġalong": 1587,
      "part": 1588,
      "ĠWith": 1589,
      "Ġmove": 1590,
      "Ġes": 1591,
      "ĠNo": 1592,
      "ĠCan": 1593,
      "ee": 1594,
      "Ġtell": 1595,
      "let": 1596,
      "Ġcommunity": 1597,
      "Ġproducts": 1598,
      "Ġbody": 1599,
      "Ġbuy": 1600,
      "Ġdidn": 1601,
      "Ġpa": 1602,
      "Ġside": 1603,
      "veral": 1604,
      "Ġaccount": 1605,
      "Ġ[": 1606,
      "ination": 1607,
      "ready": 1608,
      "ode": 1609,
      "Ġnear": 1610,
      "Ġtalk": 1611,
      "cu": 1612,
      "Ġleft": 1613,
      "aster": 1614,
      "Ġhouse": 1615,
      "Ġseason": 1616,
      "Ġbecome": 1617,
      "ajor": 1618,
      "tain": 1619,
      "Ġneeds": 1620,
      "br": 1621,
      "aim": 1622,
      "12": 1623,
      "enn": 1624,
      "Ġenough": 1625,
      "ane": 1626,
      "side": 1627,
      "Ġpain": 1628,
      "Ġfeat": 1629,
      "Ġinclude": 1630,
      "Ġ15": 1631,
      "Ġsw": 1632,
      "Ġconne": 1633,
      "Ġline": 1634,
      "aterial": 1635,
      "Ġtrad": 1636,
      "Ġshort": 1637,
      "ĠAt": 1638,
      "'re": 1639,
      "Ġever": 1640,
      "Ġmar": 1641,
      "Ġfar": 1642,
      "ohn": 1643,
      "Ġwomen": 1644,
      "Ġstory": 1645,
      "irl": 1646,
      "Ġwebsite": 1647,
      "Ġpot": 1648,
      "Ġmen": 1649,
      "urs": 1650,
      "ery": 1651,
      "Ġbenef": 1652,
      "Ġpossible": 1653,
      "Ġquality": 1654,
      "rap": 1655,
      "Ġdone": 1656,
      "Ġresearch": 1657,
      "Ġmakes": 1658,
      "ĠRo": 1659,
      "uro": 1660,
      "pportun": 1661,
      "fer": 1662,
      "Ġclo": 1663,
      "Ġindividual": 1664,
      "ON": 1665,
      "Ġenjoy": 1666,
      "Ġmembers": 1667,
      "Ġeasy": 1668,
      "Ġoffic": 1669,
      "alf": 1670,
      "ĠUniversity": 1671,
      "Ġpersonal": 1672,
      "Ġalready": 1673,
      "Ġcertain": 1674,
      "Ġbit": 1675,
      "Ġ30": 1676,
      "Ġlive": 1677,
      "Ġsocial": 1678,
      "ails": 1679,
      "Ġcountry": 1680,
      "Ġfocus": 1681,
      "Ġmeans": 1682,
      "fort": 1683,
      "ique": 1684,
      "oice": 1685,
      "Ġreview": 1686,
      "Ġ11": 1687,
      "Ġothers": 1688,
      "Ġseveral": 1689,
      "Ġbased": 1690,
      "ern": 1691,
      "viron": 1692,
      "Ġcalled": 1693,
      "Ġocc": 1694,
      "Ġgetting": 1695,
      "Ġfollowing": 1696,
      "Ġcontrol": 1697,
      "Ġmean": 1698,
      "ands": 1699,
      "uture": 1700,
      "ĠSu": 1701,
      "Ġrecord": 1702,
      "son": 1703,
      "ĠMay": 1704,
      "Ġdoing": 1705,
      "Ġnon": 1706,
      "une": 1707,
      "ĠMy": 1708,
      "Ġmind": 1709,
      "Ġcou": 1710,
      "ances": 1711,
      "ĠEng": 1712,
      "ĠAm": 1713,
      "What": 1714,
      "Ġfore": 1715,
      "ither": 1716,
      "Ġvisit": 1717,
      "Ġfund": 1718,
      "Ġcomes": 1719,
      "Ġopportun": 1720,
      "AT": 1721,
      "Ġtre": 1722,
      "Ġlim": 1723,
      "For": 1724,
      "ES": 1725,
      "Ġmil": 1726,
      "Ġmusic": 1727,
      "Ġ199": 1728,
      "Ġcame": 1729,
      "Ġeduc": 1730,
      "ĠCar": 1731,
      "ored": 1732,
      "ush": 1733,
      "Ġcreate": 1734,
      "Ġgovernment": 1735,
      "Ġmajor": 1736,
      "Ġquick": 1737,
      "Ġactually": 1738,
      "Ġelect": 1739,
      "ides": 1740,
      "Ġcamp": 1741,
      "osed": 1742,
      "orts": 1743,
      "cially": 1744,
      "Ġnews": 1745,
      "ption": 1746,
      "11": 1747,
      "Ġleast": 1748,
      "Ġfav": 1749,
      "Ġacross": 1750,
      "Ġhold": 1751,
      "Ġ|": 1752,
      "ape": 1753,
      "ĠApp": 1754,
      "rop": 1755,
      "Ġla": 1756,
      "wards": 1757,
      "Ġyoung": 1758,
      "ĠDo": 1759,
      "Ġmillion": 1760,
      "Ġmult": 1761,
      "'m": 1762,
      "Ġlow": 1763,
      "aff": 1764,
      "most": 1765,
      "Ġmom": 1766,
      "Ġcontact": 1767,
      "Ġdeal": 1768,
      "yle": 1769,
      "Ġmaterial": 1770,
      "Ġsoft": 1771,
      "Ġreturn": 1772,
      "mber": 1773,
      "Ġclear": 1774,
      "idd": 1775,
      "Ġanal": 1776,
      "Ġcharact": 1777,
      "Ġnet": 1778,
      "Ġdoesn": 1779,
      "ĠAmerican": 1780,
      "Ġdevelopment": 1781,
      "Ġthought": 1782,
      "atic": 1783,
      "Ġey": 1784,
      "urity": 1785,
      "ully": 1786,
      "app": 1787,
      "Ġinvol": 1788,
      "Ġparticular": 1789,
      "ched": 1790,
      "urther": 1791,
      "Ġce": 1792,
      "Ġonce": 1793,
      "rodu": 1794,
      "ches": 1795,
      "ino": 1796,
      "Ġspecific": 1797,
      "St": 1798,
      "Ġbeaut": 1799,
      "Ġstarted": 1800,
      "ĠFe": 1801,
      "AR": 1802,
      "ians": 1803,
      "Ġredu": 1804,
      "Ġtook": 1805,
      "not": 1806,
      "vironment": 1807,
      "ĠThese": 1808,
      "err": 1809,
      "ows": 1810,
      "wh": 1811,
      "Ġfuture": 1812,
      "AN": 1813,
      "lling": 1814,
      "Ġhappen": 1815,
      "Ġcity": 1816,
      "room": 1817,
      "Ġvideo": 1818,
      "hod": 1819,
      "Ġris": 1820,
      "crib": 1821,
      "book": 1822,
      "ones": 1823,
      "Ġtyp": 1824,
      "Ġorig": 1825,
      "ĠJohn": 1826,
      "Ġsho": 1827,
      "ister": 1828,
      "Ġfriends": 1829,
      "ĠÂ": 1830,
      "ĠSte": 1831,
      "Ġwent": 1832,
      "Ġperfect": 1833,
      "Ġhot": 1834,
      "ony": 1835,
      "aps": 1836,
      "oose": 1837,
      "Ġrequire": 1838,
      "Ġreason": 1839,
      "Ġstrong": 1840,
      "ĠFl": 1841,
      "Ġbring": 1842,
      "There": 1843,
      "lf": 1844,
      "Ġexample": 1845,
      "Ġvers": 1846,
      "Ġstudy": 1847,
      "ips": 1848,
      "Ġele": 1849,
      "OR": 1850,
      "ateg": 1851,
      "ĠMed": 1852,
      "Ġident": 1853,
      "Ġcompan": 1854,
      "Ġlink": 1855,
      "Ġwon": 1856,
      "ences": 1857,
      "aken": 1858,
      "ĠPr": 1859,
      "Ġkey": 1860,
      "Ġmonths": 1861,
      "mm": 1862,
      "ai": 1863,
      "ĠRep": 1864,
      "Ġhours": 1865,
      "Ġeconom": 1866,
      "Ġcompet": 1867,
      "Ġshare": 1868,
      "Ġstep": 1869,
      "ners": 1870,
      "Ġearly": 1871,
      "Ġhig": 1872,
      "âĢĵ": 1873,
      "Ġtem": 1874,
      "Ġyet": 1875,
      "bal": 1876,
      "Ġet": 1877,
      "Ġlater": 1878,
      "Ġcut": 1879,
      "ges": 1880,
      "Ġpercent": 1881,
      "use": 1882,
      "'ve": 1883,
      "ift": 1884,
      "ograph": 1885,
      "uff": 1886,
      "Ġheart": 1887,
      "lished": 1888,
      "Ġ/": 1889,
      "utions": 1890,
      "Ġdeli": 1891,
      "Ġvari": 1892,
      "cle": 1893,
      "ĠOne": 1894,
      "Ġens": 1895,
      "arr": 1896,
      "Ġemail": 1897,
      "ulation": 1898,
      "Ġbegin": 1899,
      "Ġwa": 1900,
      "resent": 1901,
      "Ġpage": 1902,
      "ĠHowever": 1903,
      "Ġproblem": 1904,
      "sw": 1905,
      "Ġrelations": 1906,
      "Ġcover": 1907,
      "Ġchall": 1908,
      "ĠX": 1909,
      "osp": 1910,
      "Ġknown": 1911,
      "ĠEn": 1912,
      "Ġhuman": 1913,
      "ference": 1914,
      "Ġess": 1915,
      "ĠBr": 1916,
      "Ġpress": 1917,
      "Ġbelow": 1918,
      "Ġpar": 1919,
      "ource": 1920,
      "Ġfive": 1921,
      "Ġclose": 1922,
      "idence": 1923,
      "Ġindustry": 1924,
      "Ġdiscuss": 1925,
      "par": 1926,
      "Ġappear": 1927,
      "icy": 1928,
      "Ġrele": 1929,
      "ĠInst": 1930,
      "Ġtold": 1931,
      "Ġcomb": 1932,
      "Ġpurch": 1933,
      "ilities": 1934,
      "ĠUnited": 1935,
      "Ġitem": 1936,
      "Ġwalk": 1937,
      "Ġpack": 1938,
      "ctor": 1939,
      "iday": 1940,
      "Ġspace": 1941,
      "Ġpriv": 1942,
      "ources": 1943,
      "iod": 1944,
      "ĠSy": 1945,
      "ĠNe": 1946,
      "ights": 1947,
      "ĠBo": 1948,
      "Ġgiven": 1949,
      "Ġgames": 1950,
      "ĠWor": 1951,
      "Ġant": 1952,
      "Ġener": 1953,
      "unch": 1954,
      "over": 1955,
      "Ġ16": 1956,
      "Ġeverything": 1957,
      "oring": 1958,
      "Ġtool": 1959,
      "reet": 1960,
      "acy": 1961,
      "15": 1962,
      "de": 1963,
      "ĠIntern": 1964,
      "Ġminutes": 1965,
      "Ġstay": 1966,
      "Ġcontent": 1967,
      "Ġtax": 1968,
      "ster": 1969,
      "Ġauthor": 1970,
      "ler": 1971,
      "atural": 1972,
      "Ġ14": 1973,
      "illed": 1974,
      "Ġface": 1975,
      "ĠCont": 1976,
      "che": 1977,
      "How": 1978,
      "Ġsomeone": 1979,
      "Ġwhether": 1980,
      "ford": 1981,
      "Ġsound": 1982,
      "Ġclean": 1983,
      "ilar": 1984,
      "Ġseen": 1985,
      "Ġsingle": 1986,
      "Ġprob": 1987,
      "rew": 1988,
      "Ġquestion": 1989,
      "Ġvol": 1990,
      "oon": 1991,
      "Ġwhole": 1992,
      "Ġcompanies": 1993,
      "Ġrespons": 1994,
      "aces": 1995,
      "Ġamong": 1996,
      "ply": 1997,
      "though": 1998,
      "pecially": 1999,
      "Ġprice": 2000,
      "Ġ--": 2001,
      "Ġjo": 2002,
      "An": 2003,
      "Ġamount": 2004,
      "lege": 2005,
      "ilt": 2006,
      "Ġsuper": 2007,
      "ibility": 2008,
      "Ġpie": 2009,
      "Ġenc": 2010,
      "rict": 2011,
      "Ġcult": 2012,
      "Ġclaim": 2013,
      "ental": 2014,
      "Ġfield": 2015,
      "Ġtot": 2016,
      "eral": 2017,
      "hers": 2018,
      "ball": 2019,
      "urch": 2020,
      "ĠServ": 2021,
      "ned": 2022,
      "Ġste": 2023,
      "Ġbreak": 2024,
      "ĠState": 2025,
      "Ġage": 2026,
      "Ġpick": 2027,
      "Ġtaking": 2028,
      "And": 2029,
      "rain": 2030,
      "ĠMe": 2031,
      "ancial": 2032,
      "!!": 2033,
      "Ġconsider": 2034,
      "Ġbelieve": 2035,
      "Ġfre": 2036,
      "Ġrecomm": 2037,
      "selves": 2038,
      "ĠComp": 2039,
      "ĠOur": 2040,
      "ĠGu": 2041,
      "Ġaddress": 2042,
      "Ġmot": 2043,
      "Ġphys": 2044,
      "Ġissues": 2045,
      "Ġ100": 2046,
      "Ġresults": 2047,
      "pro": 2048,
      "Ġrecommend": 2049,
      "ensive": 2050,
      "Ġmedia": 2051,
      "Ġsex": 2052,
      "Ġdue": 2053,
      "ogn": 2054,
      "gs": 2055,
      "Ġabove": 2056,
      "new": 2057,
      "mb": 2058,
      "cks": 2059,
      "ided": 2060,
      "ained": 2061,
      "Ġwind": 2062,
      "ĠYour": 2063,
      "ison": 2064,
      "fic": 2065,
      "ourn": 2066,
      "Ġbrand": 2067,
      "af": 2068,
      "cri": 2069,
      "ued": 2070,
      "Ġcred": 2071,
      "Ġpolit": 2072,
      "ili": 2073,
      "ĠNot": 2074,
      "Ġport": 2075,
      "go": 2076,
      "On": 2077,
      "Ġhistory": 2078,
      "irm": 2079,
      "ĠEuro": 2080,
      "Ġcommon": 2081,
      "Ġenvironment": 2082,
      "abor": 2083,
      "But": 2084,
      "Ġhope": 2085,
      "irt": 2086,
      "Ġmess": 2087,
      "Ġcra": 2088,
      "fully": 2089,
      "Ġconcer": 2090,
      "Ġanything": 2091,
      "Ġquestions": 2092,
      "Ġmor": 2093,
      "Ġgirl": 2094,
      "asing": 2095,
      "Ġtechnology": 2096,
      "imate": 2097,
      "ggest": 2098,
      "Ġago": 2099,
      "dd": 2100,
      "'ll": 2101,
      "iously": 2102,
      "uation": 2103,
      "Ġmanag": 2104,
      "Ġstore": 2105,
      "Ġfall": 2106,
      "When": 2107,
      "Ġ13": 2108,
      "Ġhalf": 2109,
      "gle": 2110,
      "Ġz": 2111,
      "atur": 2112,
      "Ġworks": 2113,
      "EN": 2114,
      "Ġaud": 2115,
      "Ġbuilding": 2116,
      "--": 2117,
      "Ġmethod": 2118,
      "Ġfeatures": 2119,
      "ama": 2120,
      "Ġpub": 2121,
      "Ġenergy": 2122,
      "Ġperiod": 2123,
      "Ġsci": 2124,
      "Ġeff": 2125,
      "Ġ17": 2126,
      "Ġseries": 2127,
      "ledge": 2128,
      "Ġplease": 2129,
      "Ġrange": 2130,
      "Ġimprove": 2131,
      "Ġoffers": 2132,
      "Ġexc": 2133,
      "come": 2134,
      "Ġcal": 2135,
      "ĠCal": 2136,
      "ĠChe": 2137,
      "ĠCount": 2138,
      "elt": 2139,
      "Ġrelationship": 2140,
      "Ġfurther": 2141,
      "ĠYork": 2142,
      "Ġvalue": 2143,
      "cted": 2144,
      "used": 2145,
      "//": 2146,
      "Ġwatch": 2147,
      "Ġtype": 2148,
      "cell": 2149,
      "Ġwond": 2150,
      "ĠCity": 2151,
      "So": 2152,
      "Ġtravel": 2153,
      "Ġcustomers": 2154,
      "Ġbar": 2155,
      "ĠAfter": 2156,
      "Ġidea": 2157,
      "AS": 2158,
      "Ġentire": 2159,
      "Ġalmost": 2160,
      "chie": 2161,
      "itted": 2162,
      "anks": 2163,
      "Ġeither": 2164,
      "ille": 2165,
      "rown": 2166,
      "Ġsuggest": 2167,
      "Ġfront": 2168,
      "back": 2169,
      "Ġsearch": 2170,
      "Ġcrit": 2171,
      "Ġrepl": 2172,
      "Ġeveryone": 2173,
      "ators": 2174,
      "Ġsignific": 2175,
      "Ġ24": 2176,
      "Ġpict": 2177,
      "Ġdig": 2178,
      "ried": 2179,
      "Ġmeas": 2180,
      "arning": 2181,
      "18": 2182,
      "Ġself": 2183,
      "14": 2184,
      "AL": 2185,
      "ĠMin": 2186,
      "Ġvarious": 2187,
      "Ch": 2188,
      "://": 2189,
      "iver": 2190,
      "Ġbad": 2191,
      "Ġtraining": 2192,
      "Ġparent": 2193,
      "ites": 2194,
      "Ġquite": 2195,
      "ively": 2196,
      "IS": 2197,
      "16": 2198,
      "vert": 2199,
      "fact": 2200,
      "Ġland": 2201,
      "Ġdel": 2202,
      "vent": 2203,
      "iful": 2204,
      "13": 2205,
      "ficult": 2206,
      "Ġ25": 2207,
      "Ġespecially": 2208,
      "Ġweb": 2209,
      "Ġnecess": 2210,
      "sy": 2211,
      "Ġmiss": 2212,
      "Ġsimple": 2213,
      "Ġmanagement": 2214,
      "ging": 2215,
      "ask": 2216,
      "Ġlikely": 2217,
      "Ġdeb": 2218,
      "Ġperformance": 2219,
      "Ġparticip": 2220,
      "Ġareas": 2221,
      "Ġmag": 2222,
      "Ġblack": 2223,
      "Ġglo": 2224,
      "Ġtaken": 2225,
      "gest": 2226,
      "Ġconsum": 2227,
      "Ġtrying": 2228,
      "ĠGo": 2229,
      "play": 2230,
      "Re": 2231,
      "omes": 2232,
      "Ġoil": 2233,
      "ĠEurope": 2234,
      "Ġfavor": 2235,
      "Ġhowever": 2236,
      "Ġways": 2237,
      "Ġcard": 2238,
      "lex": 2239,
      "Ġfilm": 2240,
      "Ġwanted": 2241,
      "gress": 2242,
      "Ġneeded": 2243,
      "ams": 2244,
      "ĠTw": 2245,
      "resh": 2246,
      "Ġprovides": 2247,
      "Ġdifficult": 2248,
      "__": 2249,
      "Ġspend": 2250,
      "ED": 2251,
      "Ġcell": 2252,
      "aur": 2253,
      "ples": 2254,
      "Ġinstall": 2255,
      "Ġsent": 2256,
      "ĠMc": 2257,
      "ication": 2258,
      "org": 2259,
      "urance": 2260,
      "ĠJan": 2261,
      "Ġcir": 2262,
      "Ġ50": 2263,
      "Ġthird": 2264,
      "Ġsix": 2265,
      "Ġrequired": 2266,
      "Ġdou": 2267,
      "ires": 2268,
      "yn": 2269,
      "ĠPres": 2270,
      "Ġcoming": 2271,
      "ially": 2272,
      "Ġhy": 2273,
      "Ġhost": 2274,
      "Ġasked": 2275,
      "ĠPe": 2276,
      "Ġpoints": 2277,
      "ĠGr": 2278,
      "oid": 2279,
      "ruction": 2280,
      "Ġstaff": 2281,
      "Ġrisk": 2282,
      "Ġprofessional": 2283,
      "Ġcomput": 2284,
      "Ġsimply": 2285,
      "Ġ#": 2286,
      "aching": 2287,
      "IT": 2288,
      "Ġelse": 2289,
      "time": 2290,
      "Ġansw": 2291,
      "Ġliving": 2292,
      "iol": 2293,
      "ĠNational": 2294,
      "ĠStates": 2295,
      "ĠHis": 2296,
      "Ġdam": 2297,
      "rie": 2298,
      "Ġdocu": 2299,
      "Ġpret": 2300,
      "Ġposition": 2301,
      "Ġadded": 2302,
      "Ġoffice": 2303,
      "Ġprobably": 2304,
      "Ġassist": 2305,
      "Ġfoot": 2306,
      "angu": 2307,
      "Ġtext": 2308,
      "Ġissue": 2309,
      "Ġstop": 2310,
      "ĠSec": 2311,
      "ĠSouth": 2312,
      "Ġabs": 2313,
      "Ġrather": 2314,
      "Ġyourself": 2315,
      "To": 2316,
      "Ġexist": 2317,
      "ĠDr": 2318,
      "Ġupd": 2319,
      "Ġsoon": 2320,
      "obile": 2321,
      "ĠEd": 2322,
      "Ġ:": 2323,
      "Ġsignificant": 2324,
      "ification": 2325,
      "ĠMr": 2326,
      "Ġbed": 2327,
      "ĠWorld": 2328,
      "ĠDes": 2329,
      "roll": 2330,
      "itch": 2331,
      "itional": 2332,
      "ĠSchool": 2333,
      "Ġinit": 2334,
      "Ġdeterm": 2335,
      "200": 2336,
      "ience": 2337,
      "Ġisn": 2338,
      "Ġproblems": 2339,
      "Ġwriting": 2340,
      "Ġcontinue": 2341,
      "Ġimpact": 2342,
      "ises": 2343,
      "itor": 2344,
      "IC": 2345,
      "Ġinfl": 2346,
      "Ġpopular": 2347,
      "ze": 2348,
      "Ġprep": 2349,
      "year": 2350,
      "25": 2351,
      "Ġmatter": 2352,
      "ĠQu": 2353,
      "ĠAb": 2354,
      "umb": 2355,
      "opy": 2356,
      "eth": 2357,
      "ĠNorth": 2358,
      "Ġrepresent": 2359,
      "my": 2360,
      "reme": 2361,
      "ables": 2362,
      "Ġcharacter": 2363,
      "Ġaction": 2364,
      "Ġbehind": 2365,
      "ĠAust": 2366,
      "Ġsize": 2367,
      "Ġproperty": 2368,
      "Ġflo": 2369,
      "lt": 2370,
      "apt": 2371,
      "where": 2372,
      "Ġprovided": 2373,
      "Ġunique": 2374,
      "17": 2375,
      "itting": 2376,
      "Ġevents": 2377,
      "Ġred": 2378,
      "Ġnatural": 2379,
      "Ġwords": 2380,
      "val": 2381,
      "ĠMark": 2382,
      "Ġpretty": 2383,
      "Ġachie": 2384,
      "ring": 2385,
      "ibr": 2386,
      "Ġsimilar": 2387,
      "Ġaccept": 2388,
      "Ġextra": 2389,
      "Ġrole": 2390,
      "Ġfinancial": 2391,
      "Ġforward": 2392,
      "ĠBy": 2393,
      "ĠWill": 2394,
      "astic": 2395,
      "Ġaccording": 2396,
      "ĠAf": 2397,
      ".)": 2398,
      "Ġincrease": 2399,
      "ufact": 2400,
      "head": 2401,
      "Ġinj": 2402,
      "Ġwhite": 2403,
      "ĠSm": 2404,
      "uge": 2405,
      "Ġgra": 2406,
      "Ġnothing": 2407,
      "ĠDep": 2408,
      "pper": 2409,
      "ees": 2410,
      "ĠPart": 2411,
      "ume": 2412,
      "ĠPer": 2413,
      "ole": 2414,
      "Ġoptions": 2415,
      "Ġsubject": 2416,
      "ung": 2417,
      "Ġtou": 2418,
      "Ġlog": 2419,
      "itten": 2420,
      "ĠGe": 2421,
      "ĠDis": 2422,
      "Ġfail": 2423,
      "ĠTra": 2424,
      "minist": 2425,
      "Ġ2012": 2426,
      "Ġannoun": 2427,
      "US": 2428,
      "ief": 2429,
      "Ġtakes": 2430,
      "Ġincludes": 2431,
      "Ġcook": 2432,
      "Ġselect": 2433,
      "Ġhon": 2434,
      "ĠPark": 2435,
      "medi": 2436,
      "Ġstat": 2437,
      "Ġphone": 2438,
      "Ġsafe": 2439,
      "22": 2440,
      "Ġwide": 2441,
      "Ġroad": 2442,
      "era": 2443,
      "Ġassoci": 2444,
      "Ġfinal": 2445,
      "Ġsle": 2446,
      "Ġsecurity": 2447,
      "Ġoutside": 2448,
      "Ġdeath": 2449,
      "ĠKe": 2450,
      "Ġparty": 2451,
      "Ġweeks": 2452,
      "Ġground": 2453,
      "ival": 2454,
      "ĠCor": 2455,
      "Ġdate": 2456,
      "ĠInc": 2457,
      "ĠJu": 2458,
      "ĠTH": 2459,
      "AC": 2460,
      "Ġcoll": 2461,
      "RE": 2462,
      "ules": 2463,
      "aily": 2464,
      "verage": 2465,
      "Ġtrue": 2466,
      "ĠSome": 2467,
      "Ġtreatment": 2468,
      "Ġregard": 2469,
      "Ġchanges": 2470,
      "Ġbeautiful": 2471,
      "istic": 2472,
      "Ġestab": 2473,
      "Ġgeneral": 2474,
      "Ġmodel": 2475,
      "Ġpotential": 2476,
      "Ġsum": 2477,
      "ĠJust": 2478,
      "Ġupon": 2479,
      "Ġloss": 2480,
      "Ġsoftware": 2481,
      "Ġswe": 2482,
      "ffe": 2483,
      "reg": 2484,
      "Ġskin": 2485,
      "Ġeducation": 2486,
      "Ġ2013": 2487,
      "izing": 2488,
      "Ġrecogn": 2489,
      "anc": 2490,
      "nov": 2491,
      "Ġfire": 2492,
      "anced": 2493,
      "Ġrespect": 2494,
      "na": 2495,
      "icro": 2496,
      "Ġopportunity": 2497,
      "Ġhtt": 2498,
      "Ġheld": 2499,
      "Ġpaper": 2500,
      "Ġarticle": 2501,
      "Ġsend": 2502,
      "Ġsystems": 2503,
      "ades": 2504,
      "arget": 2505,
      "Ġchoose": 2506,
      "oud": 2507,
      "face": 2508,
      "ĠBar": 2509,
      "Ġensure": 2510,
      "olution": 2511,
      "Ġdownload": 2512,
      "ĠOct": 2513,
      "Ġrecent": 2514,
      "ĠAg": 2515,
      "atform": 2516,
      "Ġhigher": 2517,
      "aving": 2518,
      "ana": 2519,
      "Ġlonger": 2520,
      "Ġdesigned": 2521,
      "Ġfunction": 2522,
      "ada": 2523,
      "oura": 2524,
      "ĠCenter": 2525,
      "Ġmach": 2526,
      "Ġcannot": 2527,
      "Ġtrack": 2528,
      "empt": 2529,
      "Ġengine": 2530,
      "ĠIm": 2531,
      "Ġcoun": 2532,
      "Ġtable": 2533,
      "Ġagree": 2534,
      "Ġcreated": 2535,
      "do": 2536,
      "Ġknowledge": 2537,
      "ample": 2538,
      "nes": 2539,
      "Ġusually": 2540,
      "ests": 2541,
      "Ġkids": 2542,
      "pril": 2543,
      "Ġdefin": 2544,
      "Ġleave": 2545,
      "Ġ,": 2546,
      "Ġcouple": 2547,
      "Ġtit": 2548,
      "Ġofficial": 2549,
      "erc": 2550,
      "Ġcomfort": 2551,
      "Ġx": 2552,
      "Ġlat": 2553,
      "Ġrunning": 2554,
      "Ġfa": 2555,
      "eter": 2556,
      "Ġinside": 2557,
      "Ġmember": 2558,
      "Ġgen": 2559,
      "Ġneg": 2560,
      "Ġanim": 2561,
      "Ġmoment": 2562,
      "Ġshows": 2563,
      "Ġready": 2564,
      "yl": 2565,
      "Ġseems": 2566,
      "Ġdepend": 2567,
      "Ġworth": 2568,
      "Ġreceived": 2569,
      "Ġusers": 2570,
      "Ġopp": 2571,
      "oph": 2572,
      "Ġthroughout": 2573,
      "Ġnetwork": 2574,
      "ĠPol": 2575,
      "21": 2576,
      "oogle": 2577,
      "Ġfig": 2578,
      "Ġsong": 2579,
      "Ġspeak": 2580,
      "Ġfast": 2581,
      "Ġinde": 2582,
      "Ġgrowth": 2583,
      "ID": 2584,
      "Ġdetails": 2585,
      "Ġbott": 2586,
      "ming": 2587,
      "Ã©": 2588,
      "iter": 2589,
      "Ġregular": 2590,
      "Ġreceive": 2591,
      "ĠAmerica": 2592,
      "Al": 2593,
      "ĠNow": 2594,
      "60": 2595,
      "Ġplayers": 2596,
      "Ġcontrib": 2597,
      "ĠPre": 2598,
      "ops": 2599,
      "Ġreading": 2600,
      "Ġrate": 2601,
      "ĠStud": 2602,
      "Ġcontract": 2603,
      "gu": 2604,
      "aced": 2605,
      "ude": 2606,
      "Ġmedical": 2607,
      "ox": 2608,
      "ĠAct": 2609,
      "Ġstri": 2610,
      "Ġcourt": 2611,
      "Ġapplication": 2612,
      "Ġlives": 2613,
      "hib": 2614,
      "Ġlearning": 2615,
      "Ġut": 2616,
      "ĠAug": 2617,
      "Ġlay": 2618,
      "Ġleaders": 2619,
      "Ġetc": 2620,
      "uary": 2621,
      "ĠCounty": 2622,
      "Ġcas": 2623,
      "Ġattack": 2624,
      "cil": 2625,
      "Ġpric": 2626,
      "Ġanyone": 2627,
      "aging": 2628,
      "Ġmass": 2629,
      "Ġsales": 2630,
      "Ġill": 2631,
      "Ġexpress": 2632,
      "aining": 2633,
      "Ġsaw": 2634,
      "iet": 2635,
      "Ġattend": 2636,
      "Ġoriginal": 2637,
      "Ġ198": 2638,
      "Ġrad": 2639,
      "Ġclick": 2640,
      "atory": 2641,
      "Ġdom": 2642,
      "Ġtotal": 2643,
      "Ġbox": 2644,
      "Ġsense": 2645,
      "Ġprint": 2646,
      "based": 2647,
      "mit": 2648,
      "Ġcause": 2649,
      "Ġdescrib": 2650,
      "Ġpractice": 2651,
      "ĠPa": 2652,
      "Ġfit": 2653,
      "ĠDon": 2654,
      "ĠMarch": 2655,
      "Ġdeep": 2656,
      "Ġcollect": 2657,
      "Ġcolor": 2658,
      "Ġstruct": 2659,
      "Ġcustomer": 2660,
      "iddle": 2661,
      "arter": 2662,
      "ĠMore": 2663,
      "Ġ2014": 2664,
      "Ġdep": 2665,
      "Ġquickly": 2666,
      "ĠWest": 2667,
      "ening": 2668,
      "Ġstra": 2669,
      "Ġhappy": 2670,
      "Ġtown": 2671,
      "ĠHealth": 2672,
      "Ġdecision": 2673,
      "Ġdest": 2674,
      "Ġemb": 2675,
      "amed": 2676,
      "Ġpatients": 2677,
      "ĠSpe": 2678,
      "Ġprior": 2679,
      "Ġthemselves": 2680,
      "idge": 2681,
      "icles": 2682,
      "Ġnice": 2683,
      "Ġnational": 2684,
      "Ġpark": 2685,
      "action": 2686,
      "ysis": 2687,
      "Ġvia": 2688,
      "ober": 2689,
      "Ġversion": 2690,
      "ese": 2691,
      "iff": 2692,
      "irit": 2693,
      "ceed": 2694,
      "Ġbase": 2695,
      "Ġwonder": 2696,
      "Ġsens": 2697,
      "edd": 2698,
      "Ġlate": 2699,
      "Ġadditional": 2700,
      "Ġprivate": 2701,
      "Ġexact": 2702,
      "Ġweight": 2703,
      "earch": 2704,
      "ek": 2705,
      "Ġball": 2706,
      "Ġpolicy": 2707,
      "ĠDav": 2708,
      "ĠJune": 2709,
      "like": 2710,
      "Ġhair": 2711,
      "Ġveh": 2712,
      "Ġbooks": 2713,
      "Ġrecently": 2714,
      "Ġcele": 2715,
      "Ġple": 2716,
      "Ġwar": 2717,
      "Ġpers": 2718,
      "aign": 2719,
      "Ġactivities": 2720,
      "Ġcredit": 2721,
      "Ġcurrently": 2722,
      "ĠSept": 2723,
      "Ġnorm": 2724,
      "ĠPresident": 2725,
      "Ġautom": 2726,
      "40": 2727,
      "Ġhands": 2728,
      "Ġhit": 2729,
      "Ġstyle": 2730,
      "ux": 2731,
      "Ġgoal": 2732,
      "Ġmanufact": 2733,
      "ĠWhile": 2734,
      "lier": 2735,
      "azing": 2736,
      "Ġitems": 2737,
      "ĠReg": 2738,
      "adem": 2739,
      "Ġformer": 2740,
      "cast": 2741,
      "Ġskills": 2742,
      "Ġmultip": 2743,
      "Ġaffect": 2744,
      "Ġprim": 2745,
      "Ġcorre": 2746,
      "Ġprotect": 2747,
      "ha": 2748,
      "ĠHigh": 2749,
      "Ġability": 2750,
      "Ġblood": 2751,
      "Ġdeg": 2752,
      "amb": 2753,
      "ciety": 2754,
      "Ġplaying": 2755,
      "Ġlangu": 2756,
      "Ġsat": 2757,
      "Ġintrodu": 2758,
      "duct": 2759,
      "ached": 2760,
      "Ġplatform": 2761,
      "oll": 2762,
      "ĠArt": 2763,
      "Ġproduction": 2764,
      "Ġmorning": 2765,
      "ĠHere": 2766,
      "Ġpan": 2767,
      "Ġterms": 2768,
      "ĠEm": 2769,
      "inary": 2770,
      "Ġimm": 2771,
      "Ġworked": 2772,
      "ky": 2773,
      "Ġ40": 2774,
      "Ġcases": 2775,
      "uth": 2776,
      "Ġboard": 2777,
      "Ġbal": 2778,
      "ns": 2779,
      "iber": 2780,
      "ĠHouse": 2781,
      "Ġteac": 2782,
      "ament": 2783,
      "Ġcareer": 2784,
      "Ġlost": 2785,
      "Ġdrive": 2786,
      "ological": 2787,
      "clus": 2788,
      "Ġitself": 2789,
      "ederal": 2790,
      "Ġwoman": 2791,
      "Ġwall": 2792,
      "ĠApril": 2793,
      "Ġ2011": 2794,
      "Ġblog": 2795,
      "Ġincluded": 2796,
      "Ġobject": 2797,
      "Ġmother": 2798,
      "Ġobs": 2799,
      "oke": 2800,
      "Ġfight": 2801,
      "imum": 2802,
      "ĠDay": 2803,
      "Ġtarget": 2804,
      "Ġmeeting": 2805,
      "Ġviol": 2806,
      "Ġeasily": 2807,
      "Ġsqu": 2808,
      "Ġchalleng": 2809,
      "ĠHar": 2810,
      "Ġep": 2811,
      "ground": 2812,
      "Ġmarketing": 2813,
      "aby": 2814,
      "erve": 2815,
      "ĠEl": 2816,
      "Ġarri": 2817,
      "Ġapproach": 2818,
      "ĠBu": 2819,
      "irth": 2820,
      "ession": 2821,
      "reng": 2822,
      "ournal": 2823,
      "Ġsaf": 2824,
      "Ġscreen": 2825,
      "Ġaf": 2826,
      "Ġmyself": 2827,
      "Ġdise": 2828,
      "Ġtour": 2829,
      "Ġrights": 2830,
      "Ġprograms": 2831,
      "right": 2832,
      "Ġsummer": 2833,
      "ague": 2834,
      "Ġlatest": 2835,
      "Ġcool": 2836,
      "airs": 2837,
      "ecut": 2838,
      "Ġinsp": 2839,
      "Ġbegan": 2840,
      "Ġinternational": 2841,
      "With": 2842,
      "Ġchance": 2843,
      "Ġimmedi": 2844,
      "Ġchoice": 2845,
      "ashing": 2846,
      "pose": 2847,
      "fficient": 2848,
      "Ġconditions": 2849,
      "Ġlower": 2850,
      "Ġclos": 2851,
      "Ġdru": 2852,
      "hood": 2853,
      "Ġlevels": 2854,
      "ĠHer": 2855,
      "hel": 2856,
      "Ġcam": 2857,
      "bor": 2858,
      "Ġri": 2859,
      "asons": 2860,
      "ales": 2861,
      "enced": 2862,
      "Ġclients": 2863,
      "Ġ2016": 2864,
      "Ġmix": 2865,
      "Ġbenefits": 2866,
      "Ġinvolved": 2867,
      "ĠUs": 2868,
      "light": 2869,
      "ĠOff": 2870,
      "Ġgoes": 2871,
      "Ġ2017": 2872,
      "itc": 2873,
      "Ġgrad": 2874,
      "mon": 2875,
      "ĠSw": 2876,
      "OU": 2877,
      "off": 2878,
      "ĠInt": 2879,
      "Ġbuilt": 2880,
      "ham": 2881,
      "Ġintegr": 2882,
      "Ġ2010": 2883,
      "ĠJuly": 2884,
      "Ġstudent": 2885,
      "Ġstock": 2886,
      "artment": 2887,
      "ĠFin": 2888,
      "OT": 2889,
      "Ġparents": 2890,
      "Ġlegal": 2891,
      "Ġappe": 2892,
      "Ġmaintain": 2893,
      "Ġdraw": 2894,
      "pri": 2895,
      "lim": 2896,
      "Ġallows": 2897,
      "Ġapply": 2898,
      "ĠAdd": 2899,
      "Ġcand": 2900,
      "ĠCour": 2901,
      "Ġhol": 2902,
      "Ġinstead": 2903,
      "Ġnecessary": 2904,
      "Ġsell": 2905,
      "Ġattention": 2906,
      "Ġbecame": 2907,
      "Ġremember": 2908,
      "just": 2909,
      "ipment": 2910,
      "Ġmatch": 2911,
      "Ġshall": 2912,
      "Ġbud": 2913,
      "Ġwasn": 2914,
      "sc": 2915,
      "âĢ¢": 2916,
      "Ġround": 2917,
      "Our": 2918,
      "Ġprojects": 2919,
      "Ġcosts": 2920,
      "Ġcommit": 2921,
      "Ġcountries": 2922,
      "Ġjud": 2923,
      "Ġdecided": 2924,
      "ĠFeb": 2925,
      "Ġlooks": 2926,
      "Ġsett": 2927,
      "ĠPar": 2928,
      "23": 2929,
      "ĠVal": 2930,
      "Ġpolitical": 2931,
      "iction": 2932,
      "Ġbank": 2933,
      "AM": 2934,
      "Ġcy": 2935,
      "haps": 2936,
      "str": 2937,
      "Ġfelt": 2938,
      "Ġord": 2939,
      "Ġrelated": 2940,
      "ett": 2941,
      "Ġvariety": 2942,
      "illing": 2943,
      "OS": 2944,
      "su": 2945,
      "atives": 2946,
      "Ġones": 2947,
      "ĠMon": 2948,
      "Ġfresh": 2949,
      "Ġsurpr": 2950,
      "Ġ...": 2951,
      "Ġ2015": 2952,
      "put": 2953,
      "Ġ21": 2954,
      "ĠAustral": 2955,
      "Ġuser": 2956,
      "Ġstandard": 2957,
      "Ġconc": 2958,
      "Ġeffective": 2959,
      "Ġmention": 2960,
      "Ġfeed": 2961,
      "erous": 2962,
      "ĠWar": 2963,
      "ivity": 2964,
      "ray": 2965,
      "Ġoption": 2966,
      "Ġtrust": 2967,
      "Ġwritten": 2968,
      "Ġfavorite": 2969,
      "Ġideas": 2970,
      "ĠBro": 2971,
      "urg": 2972,
      "icated": 2973,
      "iam": 2974,
      "inc": 2975,
      "itter": 2976,
      "oting": 2977,
      "Ġencoura": 2978,
      "hern": 2979,
      "Ġemer": 2980,
      "ĠBlack": 2981,
      "Ġcampaign": 2982,
      "Ġattempt": 2983,
      "aturday": 2984,
      "ris": 2985,
      "Ġeyes": 2986,
      "Ġrelease": 2987,
      "My": 2988,
      "Ġhuge": 2989,
      "onse": 2990,
      "Ġleading": 2991,
      "ĠMich": 2992,
      "rought": 2993,
      "hold": 2994,
      "Ġglobal": 2995,
      "Ġplans": 2996,
      "Ġgroups": 2997,
      "ĠFrom": 2998,
      "Ġcomputer": 2999,
      "Ġbi": 3000,
      "ING": 3001,
      "uses": 3002,
      "ĠTV": 3003,
      "ĠSan": 3004,
      "Ġwrite": 3005,
      "Ġinvestig": 3006,
      "aught": 3007,
      "ĠOf": 3008,
      "attle": 3009,
      "ĠAssoci": 3010,
      "unt": 3011,
      "ĠChar": 3012,
      "All": 3013,
      "ension": 3014,
      "ĠAfric": 3015,
      "ovember": 3016,
      "Ph": 3017,
      "ny": 3018,
      "Ġdoor": 3019,
      "bit": 3020,
      "Ġhear": 3021,
      "Ġexcell": 3022,
      "Ġsn": 3023,
      "Ġdrink": 3024,
      "Ġsafety": 3025,
      "Ġtouch": 3026,
      "ĠUK": 3027,
      "oe": 3028,
      "Ġsil": 3029,
      "Ġwrong": 3030,
      "aves": 3031,
      "uel": 3032,
      "Ġinsurance": 3033,
      "unday": 3034,
      "Ġdigital": 3035,
      "iring": 3036,
      "cription": 3037,
      "ĠThen": 3038,
      "Ġsepar": 3039,
      "Ġ2018": 3040,
      "ĠBrit": 3041,
      "Ġhor": 3042,
      "Ġvict": 3043,
      "ĠAcc": 3044,
      "ought": 3045,
      "Ġtypes": 3046,
      "Ġdiv": 3047,
      "Ġgets": 3048,
      "ĠMus": 3049,
      "Ġdefe": 3050,
      "Ġmodern": 3051,
      "fl": 3052,
      "aste": 3053,
      "Ġexcept": 3054,
      "usiness": 3055,
      "ĠFace": 3056,
      "Ġlif": 3057,
      "wood": 3058,
      "At": 3059,
      "....": 3060,
      "ĠFriday": 3061,
      "ule": 3062,
      "Ġstreng": 3063,
      "avy": 3064,
      "Ġlab": 3065,
      "Ġspeed": 3066,
      "body": 3067,
      "Ġrequest": 3068,
      "Ġgives": 3069,
      "24": 3070,
      "Ġrev": 3071,
      "Ġreported": 3072,
      "Ġanswer": 3073,
      "Sh": 3074,
      "Ġimage": 3075,
      "plement": 3076,
      "cip": 3077,
      "Ġgave": 3078,
      "cember": 3079,
      "verse": 3080,
      "aged": 3081,
      "Ġsus": 3082,
      "Ġparts": 3083,
      "Ġpred": 3084,
      "Ġresources": 3085,
      "Ġprevent": 3086,
      "itary": 3087,
      "nds": 3088,
      "Ġtal": 3089,
      "Ġpolice": 3090,
      "king": 3091,
      "Ġpositive": 3092,
      "ishing": 3093,
      "Ġenter": 3094,
      "Ġdaily": 3095,
      "Ġsaying": 3096,
      "Ġpurchase": 3097,
      "idered": 3098,
      "wise": 3099,
      "Ġcompletely": 3100,
      "Ġpropos": 3101,
      "ester": 3102,
      "mercial": 3103,
      "Ġpull": 3104,
      "Ġrout": 3105,
      "ĠEnglish": 3106,
      "Ġmovie": 3107,
      "Ġproviding": 3108,
      "Ġsold": 3109,
      "Ġflow": 3110,
      "ĠJanuary": 3111,
      "Ġthinking": 3112,
      "Ġfair": 3113,
      "Ġplant": 3114,
      "70": 3115,
      "gar": 3116,
      "Ġaw": 3117,
      "ĠRed": 3118,
      "Ġsites": 3119,
      "Ġtools": 3120,
      "Ġcirc": 3121,
      "ondon": 3122,
      "ĠDepartment": 3123,
      "Ġlocation": 3124,
      "Ġamazing": 3125,
      "Ġstru": 3126,
      "enty": 3127,
      "ĠSeptember": 3128,
      "Ġlocated": 3129,
      "pre": 3130,
      "Ġdark": 3131,
      "alt": 3132,
      "ĠAugust": 3133,
      "Ġgiving": 3134,
      "ĠGoogle": 3135,
      "iding": 3136,
      "urb": 3137,
      "OM": 3138,
      "Ġsource": 3139,
      "Ġaverage": 3140,
      "Ġexpected": 3141,
      "Ġcenter": 3142,
      "ĠAc": 3143,
      "Ġsche": 3144,
      "isions": 3145,
      "ĠOctober": 3146,
      "Ġinteresting": 3147,
      "Ġsituation": 3148,
      "ĠAut": 3149,
      "Ġremov": 3150,
      "vey": 3151,
      "Ġ22": 3152,
      "cious": 3153,
      "Ġhimself": 3154,
      "Ġplayed": 3155,
      "itation": 3156,
      "ĠCalif": 3157,
      "pite": 3158,
      "Ġhelps": 3159,
      "yond": 3160,
      "Ġprin": 3161,
      "ĠDirect": 3162,
      "Ġcross": 3163,
      "EC": 3164,
      "Ġknew": 3165,
      "Ġsave": 3166,
      "Ġpiece": 3167,
      "Ġdisplay": 3168,
      "That": 3169,
      "Ġinflu": 3170,
      "Ġpresident": 3171,
      "Ġextreme": 3172,
      "onday": 3173,
      "Ġvac": 3174,
      "Ġ23": 3175,
      "ville": 3176,
      "80": 3177,
      "Ġcat": 3178,
      "Ġpath": 3179,
      "One": 3180,
      "Ġorganization": 3181,
      "Ġmobile": 3182,
      "Ġphysical": 3183,
      "rs": 3184,
      "ĠOb": 3185,
      "Ġslow": 3186,
      "Ġadminist": 3187,
      "Ġheard": 3188,
      "ĠInternational": 3189,
      "ma": 3190,
      "99": 3191,
      "ĠCons": 3192,
      "urt": 3193,
      "Ġdetail": 3194,
      "ĠPat": 3195,
      "enge": 3196,
      "ĠGerm": 3197,
      "Ġmultiple": 3198,
      "zy": 3199,
      "mission": 3200,
      "agn": 3201,
      "aint": 3202,
      "Ġhighly": 3203,
      "Ġfile": 3204,
      "aker": 3205,
      "Ġcomment": 3206,
      "Ġsometimes": 3207,
      "Ġqual": 3208,
      "Ġarch": 3209,
      "Ġreach": 3210,
      "Ġdocument": 3211,
      "apan": 3212,
      "Ġdirectly": 3213,
      "aly": 3214,
      "ĠSci": 3215,
      "Ġdating": 3216,
      "Ġnature": 3217,
      "Ġwood": 3218,
      "Ġsleep": 3219,
      "ara": 3220,
      "Be": 3221,
      "ospital": 3222,
      "Ġsun": 3223,
      "Ġtele": 3224,
      "itely": 3225,
      "oms": 3226,
      "Ġled": 3227,
      "ĠNet": 3228,
      "ĠSch": 3229,
      "Ġaff": 3230,
      "imately": 3231,
      "ET": 3232,
      "Ġmid": 3233,
      "Ġcelebr": 3234,
      "Ġbur": 3235,
      "Ġtowards": 3236,
      "Ġpartners": 3237,
      "ilies": 3238,
      "band": 3239,
      "Ġindividuals": 3240,
      "Ġnote": 3241,
      "Ġavoid": 3242,
      "Ġsolution": 3243,
      "aches": 3244,
      "Ġdevice": 3245,
      "Ġconsidered": 3246,
      "Ġconvers": 3247,
      "Ġinterview": 3248,
      "ornia": 3249,
      "Ġfeature": 3250,
      "idents": 3251,
      "Ġdepart": 3252,
      "cies": 3253,
      "Ġcondition": 3254,
      "sych": 3255,
      "Ġoffe": 3256,
      "key": 3257,
      "ls": 3258,
      "Ġsection": 3259,
      "sec": 3260,
      "Ġdead": 3261,
      "ĠSer": 3262,
      "itute": 3263,
      "tee": 3264,
      "ica": 3265,
      "Ġbroad": 3266,
      "bert": 3267,
      "'d": 3268,
      "ĠNovember": 3269,
      "Ġreve": 3270,
      "Ġaware": 3271,
      "EO": 3272,
      "Ġmaterials": 3273,
      "ĠCommun": 3274,
      "Ġpublished": 3275,
      "ĠAre": 3276,
      "Ġstarting": 3277,
      "Ġprogress": 3278,
      "Ġconsist": 3279,
      "Ġgreen": 3280,
      "ibly": 3281,
      "iles": 3282,
      "Ġlanguage": 3283,
      "Ġsubs": 3284,
      "ari": 3285,
      "Ġcomplex": 3286,
      "Ġcollection": 3287,
      "ram": 3288,
      "mas": 3289,
      "Ġ2009": 3290,
      "ĠAir": 3291,
      "sp": 3292,
      "Ġpen": 3293,
      "Ġcup": 3294,
      "Ġturned": 3295,
      "ĠCoun": 3296,
      "âĢĿ.": 3297,
      "aling": 3298,
      "Ġcapt": 3299,
      "Ġbrought": 3300,
      "ications": 3301,
      "rote": 3302,
      "ĠKing": 3303,
      "EL": 3304,
      "Ġfine": 3305,
      "Ġemployees": 3306,
      "board": 3307,
      "add": 3308,
      "aries": 3309,
      "Ġfather": 3310,
      "Ġimplement": 3311,
      "itchen": 3312,
      "Ġexpert": 3313,
      "Ġmat": 3314,
      "ened": 3315,
      "Ġdream": 3316,
      "ĠSim": 3317,
      "Ġlimited": 3318,
      "omen": 3319,
      "Ġsubst": 3320,
      "ĠEvery": 3321,
      "Ġblock": 3322,
      "ĠSunday": 3323,
      "ĠSaturday": 3324,
      "Ġbehav": 3325,
      "Ġachieve": 3326,
      "Ġstuff": 3327,
      "Ġequipment": 3328,
      "Ġ+": 3329,
      "ĠUp": 3330,
      "Ġeye": 3331,
      "Ġfix": 3332,
      "Ġplayer": 3333,
      "Ġeconomic": 3334,
      "Ġlooked": 3335,
      "ĠDecember": 3336,
      "ĠLondon": 3337,
      "Ġreleased": 3338,
      "ores": 3339,
      "Ġlack": 3340,
      "Ġded": 3341,
      "ĠChina": 3342,
      "ruary": 3343,
      "ĠPlease": 3344,
      "oming": 3345,
      "ĠWind": 3346,
      "Ġanalysis": 3347,
      "lin": 3348,
      "Ġson": 3349,
      "Ġregul": 3350,
      "Ġten": 3351,
      "Ġstates": 3352,
      "Ġstories": 3353,
      "Ġge": 3354,
      "Ġconcept": 3355,
      "Ġsuccessful": 3356,
      "Ġresponse": 3357,
      "ĠGener": 3358,
      "izes": 3359,
      "rences": 3360,
      "ĠFacebook": 3361,
      "Ġeffects": 3362,
      "ĠFirst": 3363,
      "uk": 3364,
      "Ġadvant": 3365,
      "www": 3366,
      "ength": 3367,
      "orge": 3368,
      "Ġfirm": 3369,
      "Ġfeeling": 3370,
      "ĠJes": 3371,
      "vant": 3372,
      "Ġconnect": 3373,
      "arily": 3374,
      "ĠRead": 3375,
      "Ġdistrib": 3376,
      "After": 3377,
      "ĠStreet": 3378,
      "Ġhour": 3379,
      "Ġmis": 3380,
      "Ġinnov": 3381,
      "wor": 3382,
      "Ġbusinesses": 3383,
      "Ġgrowing": 3384,
      "No": 3385,
      "ĠLaw": 3386,
      "ivil": 3387,
      "Ġmount": 3388,
      "Ġwarm": 3389,
      "ancy": 3390,
      "Ġcarry": 3391,
      "Ġexerc": 3392,
      "ĠIndia": 3393,
      "Ġadult": 3394,
      "Ġrestaur": 3395,
      "ĠGroup": 3396,
      "rast": 3397,
      "Ġplanning": 3398,
      "AP": 3399,
      "ĠFree": 3400,
      "Ġ2008": 3401,
      "\".": 3402,
      "Ġregist": 3403,
      "Ġweeke": 3404,
      "IL": 3405,
      "ael": 3406,
      "het": 3407,
      "antly": 3408,
      "Ġtraditional": 3409,
      "Ġfully": 3410,
      "Ġeffort": 3411,
      "?âĢĿ": 3412,
      "Ġlic": 3413,
      "name": 3414,
      "Ġband": 3415,
      "Ġcode": 3416,
      "Ġdeveloped": 3417,
      "uate": 3418,
      "Ġinterested": 3419,
      "Ġstress": 3420,
      "Ġclub": 3421,
      "Ġhealthy": 3422,
      "Ġcertainly": 3423,
      "Ġrespond": 3424,
      "ani": 3425,
      "Ġtrip": 3426,
      "ĠCalifornia": 3427,
      "ĠSen": 3428,
      "Ġdro": 3429,
      "Ġplaces": 3430,
      "Ġevidence": 3431,
      "itable": 3432,
      "Ġactivity": 3433,
      "Ġneigh": 3434,
      "Ġprevious": 3435,
      "Ġspent": 3436,
      "Ġspot": 3437,
      "Ġgold": 3438,
      "Ġ28": 3439,
      "Ġenh": 3440,
      "Ġnation": 3441,
      "raft": 3442,
      "Ġmessage": 3443,
      "Ġcopy": 3444,
      "Cl": 3445,
      "Ġbag": 3446,
      "Ġcreating": 3447,
      "Ġorganiz": 3448,
      "Ġexcellent": 3449,
      "Ġprem": 3450,
      "Ġ*": 3451,
      "Ġdeliver": 3452,
      "Ġemot": 3453,
      "zz": 3454,
      "ĠAN": 3455,
      "more": 3456,
      "sequ": 3457,
      "Ġmoving": 3458,
      "ĠJe": 3459,
      "Ġpressure": 3460,
      "Ġfeet": 3461,
      "ald": 3462,
      "Ġstage": 3463,
      "ategy": 3464,
      "mark": 3465,
      "Ġfinally": 3466,
      "ĠGl": 3467,
      "ĠCourt": 3468,
      "aughter": 3469,
      "Ġwel": 3470,
      "ography": 3471,
      "Ġcollege": 3472,
      "Ġbra": 3473,
      "ashington": 3474,
      "Ġphotos": 3475,
      "Ġobtain": 3476,
      "Ġaltern": 3477,
      "Ġbirth": 3478,
      "Ġ26": 3479,
      "ĠMost": 3480,
      "Ġexactly": 3481,
      "ida": 3482,
      "Ġeat": 3483,
      "):": 3484,
      "Ġimpress": 3485,
      "Ġimag": 3486,
      "Ġgoals": 3487,
      "arant": 3488,
      "ĠNews": 3489,
      "Ġwants": 3490,
      "Ġstrateg": 3491,
      "error": 3492,
      "arden": 3493,
      "Ġhttp": 3494,
      "mitted": 3495,
      "Ġunderstanding": 3496,
      "Ġinform": 3497,
      "ĠPost": 3498,
      "Ġ60": 3499,
      "ĠWell": 3500,
      "uted": 3501,
      "Ġtried": 3502,
      "ĠâĢ¦": 3503,
      "oot": 3504,
      "Ġopportunities": 3505,
      "Ġdemand": 3506,
      "Ġsolutions": 3507,
      "vin": 3508,
      "erved": 3509,
      "Ġculture": 3510,
      "oday": 3511,
      "Ġult": 3512,
      "ĠService": 3513,
      "olute": 3514,
      "ĠDem": 3515,
      "Ġdifference": 3516,
      "oly": 3517,
      "ION": 3518,
      "Ġconsult": 3519,
      "Ġacqu": 3520,
      "Ġbudget": 3521,
      "Ġpaid": 3522,
      "Ġthreat": 3523,
      "ĠJapan": 3524,
      "Ġpurpose": 3525,
      "ube": 3526,
      "vis": 3527,
      "chan": 3528,
      "Ġfrequ": 3529,
      "Ġbeginning": 3530,
      "lied": 3531,
      "Ġaccom": 3532,
      "Ġdry": 3533,
      "Ġfat": 3534,
      "ĠLa": 3535,
      "Ġtick": 3536,
      "Ġfamilies": 3537,
      "Ġprices": 3538,
      "Ġhous": 3539,
      "ĠOut": 3540,
      "unk": 3541,
      "ĠTHE": 3542,
      "ĠEven": 3543,
      "Ġinstru": 3544,
      "Ġdisease": 3545,
      "Ġanaly": 3546,
      "Ġwife": 3547,
      "Ġ2019": 3548,
      "Ġhistor": 3549,
      "bum": 3550,
      "Ġpicture": 3551,
      "Ġkn": 3552,
      "Ġrace": 3553,
      "Ġrequirements": 3554,
      "ruit": 3555,
      "Ġindepend": 3556,
      "ager": 3557,
      "Ġnearly": 3558,
      "Ġ27": 3559,
      "anch": 3560,
      "ĠCollege": 3561,
      "Ġdog": 3562,
      "ying": 3563,
      "wide": 3564,
      "Ġaim": 3565,
      "ĠMonday": 3566,
      "Ġassess": 3567,
      "Ġstraight": 3568,
      "Ġspirit": 3569,
      "Ġdemon": 3570,
      "ares": 3571,
      "Ġdress": 3572,
      "Ġwish": 3573,
      "Ġoccur": 3574,
      "Ġsen": 3575,
      "field": 3576,
      "ĠBusiness": 3577,
      "Ġcorrect": 3578,
      "Ġdire": 3579,
      "They": 3580,
      "Ġinvestment": 3581,
      "ocr": 3582,
      "orage": 3583,
      "Ġappropri": 3584,
      "ĠTechn": 3585,
      "lement": 3586,
      "Ġparticularly": 3587,
      "pm": 3588,
      "ĠTrans": 3589,
      "ĠRuss": 3590,
      "down": 3591,
      "Ġschools": 3592,
      "Ġthous": 3593,
      "Ġheat": 3594,
      "vest": 3595,
      "Ġcert": 3596,
      "rench": 3597,
      "Ġregion": 3598,
      "ĠMet": 3599,
      "Ġfloor": 3600,
      "isc": 3601,
      "Ġbeyond": 3602,
      "ursday": 3603,
      "Ġrent": 3604,
      "Ġtemper": 3605,
      "ipping": 3606,
      "hest": 3607,
      "Ġmaybe": 3608,
      "Ġsort": 3609,
      "Ġoverall": 3610,
      "Ġter": 3611,
      "Ġimages": 3612,
      "Ġteams": 3613,
      "Ġbenefit": 3614,
      "Ġapplications": 3615,
      "ĠDavid": 3616,
      "Ġalone": 3617,
      "rows": 3618,
      "reci": 3619,
      "gen": 3620,
      "ĠHome": 3621,
      "Ġsale": 3622,
      "duc": 3623,
      "ĠEast": 3624,
      "ĠProf": 3625,
      "uesday": 3626,
      "venue": 3627,
      "Ġgas": 3628,
      "undred": 3629,
      "Ġwait": 3630,
      "Ġincreased": 3631,
      "Ġincreasing": 3632,
      "Ġessential": 3633,
      "ashion": 3634,
      "reed": 3635,
      "Ġfem": 3636,
      "ednes": 3637,
      "ĠServices": 3638,
      "ĠFebruary": 3639,
      "Ġtalking": 3640,
      "atever": 3641,
      "ibrary": 3642,
      "isf": 3643,
      "ĠIN": 3644,
      "ato": 3645,
      "Ġapart": 3646,
      "Ġdefinitely": 3647,
      "Ġver": 3648,
      "amm": 3649,
      "45": 3650,
      "ancing": 3651,
      "Ġbaby": 3652,
      "ĠPaul": 3653,
      "Ġannounced": 3654,
      "Ġreports": 3655,
      "Ġmachine": 3656,
      "ĠWashington": 3657,
      "estern": 3658,
      "Ġhop": 3659,
      "Ġaward": 3660,
      "ronic": 3661,
      "Ġcharge": 3662,
      "rael": 3663,
      "rel": 3664,
      "Ġcommercial": 3665,
      "ords": 3666,
      "Ġmeaning": 3667,
      "Ġrelig": 3668,
      "AD": 3669,
      "Ġnut": 3670,
      "ĠII": 3671,
      "Ġearlier": 3672,
      "ĠJesus": 3673,
      "Ġuses": 3674,
      "imin": 3675,
      "Ġsmart": 3676,
      "Ġtrade": 3677,
      "Ġimmediately": 3678,
      "inner": 3679,
      "Ġroll": 3680,
      "Ġwrote": 3681,
      "Ġpattern": 3682,
      "ĠÂ£": 3683,
      "change": 3684,
      "Ġreduce": 3685,
      "OL": 3686,
      "ously": 3687,
      "ĠLet": 3688,
      "Ex": 3689,
      "ĠJack": 3690,
      "asc": 3691,
      "ĠAss": 3692,
      "Ġfear": 3693,
      "ĠBook": 3694,
      "Ġrates": 3695,
      "Ġund": 3696,
      "lock": 3697,
      "Ġbillion": 3698,
      "Ġdoll": 3699,
      "Ġshot": 3700,
      "ĠWhite": 3701,
      "Ġinternet": 3702,
      "Ġrock": 3703,
      "ĠAlso": 3704,
      "dom": 3705,
      "Ġwhose": 3706,
      "ils": 3707,
      "PS": 3708,
      "Ġserious": 3709,
      "Ġtitle": 3710,
      "Ġserve": 3711,
      "Ġsupply": 3712,
      "Ġmax": 3713,
      "Ġadvice": 3714,
      "Ġextend": 3715,
      "olf": 3716,
      "Ġadvert": 3717,
      "pen": 3718,
      "Ġpet": 3719,
      "Ġshown": 3720,
      "Ġallowed": 3721,
      "Ġcapital": 3722,
      "ĠGet": 3723,
      "oul": 3724,
      "Ġ2020": 3725,
      "Ġaspect": 3726,
      "BC": 3727,
      "force": 3728,
      "Ġoffered": 3729,
      "Ġweekend": 3730,
      "Ġdirector": 3731,
      "ednesday": 3732,
      "Ġopin": 3733,
      "ffee": 3734,
      "aled": 3735,
      "Ġnumbers": 3736,
      "Ġnormal": 3737,
      "Ġproced": 3738,
      "75": 3739,
      "ounds": 3740,
      "Ġstrugg": 3741,
      "Ġinstit": 3742,
      "Ġdoub": 3743,
      "ĠPal": 3744,
      "ĠEar": 3745,
      "ĠChristmas": 3746,
      "ĠMor": 3747,
      "Ġgrand": 3748,
      "Ġdamage": 3749,
      "Ġliter": 3750,
      "Ġfans": 3751,
      "Ġactive": 3752,
      "Ġglass": 3753,
      "Ġstatement": 3754,
      "etic": 3755,
      "ĠIr": 3756,
      "ecutive": 3757,
      "Ġremain": 3758,
      "ĠGovern": 3759,
      "ST": 3760,
      "Ġvoice": 3761,
      "Ġload": 3762,
      "Ġcandid": 3763,
      "Ġcash": 3764,
      "Ġreasons": 3765,
      "Ġsurv": 3766,
      "Ġguide": 3767,
      "ship": 3768,
      "ties": 3769,
      "porate": 3770,
      "Ġcateg": 3771,
      "edding": 3772,
      "omb": 3773,
      "Ġprefer": 3774,
      "Ġowners": 3775,
      "Ġmiddle": 3776,
      "icate": 3777,
      "ĠSystem": 3778,
      "Ġdevices": 3779,
      "Ġprofession": 3780,
      "Ġalthough": 3781,
      "ĠProgram": 3782,
      "ĠWeb": 3783,
      "She": 3784,
      "Ġstudies": 3785,
      "Ġloved": 3786,
      "rig": 3787,
      "Ġden": 3788,
      "Ġcouldn": 3789,
      "Do": 3790,
      "ault": 3791,
      "Ġchanged": 3792,
      "Ġcru": 3793,
      "Ġconstruction": 3794,
      "ĠDist": 3795,
      "Ġclin": 3796,
      "Ġbasis": 3797,
      "Ġtruly": 3798,
      "Ġrules": 3799,
      "Ġforce": 3800,
      "ĠCanada": 3801,
      "Ġchurch": 3802,
      "ĠDel": 3803,
      "Ġcold": 3804,
      "Ġfarm": 3805,
      "35": 3806,
      "mp": 3807,
      "rapy": 3808,
      "Ġassociated": 3809,
      "Ġseven": 3810,
      "example": 3811,
      "Ġing": 3812,
      "ĠGreat": 3813,
      "De": 3814,
      "Ġpatient": 3815,
      "Ġscient": 3816,
      "ĠPlay": 3817,
      "ĠPM": 3818,
      "ĠIndian": 3819,
      "Ġcancer": 3820,
      "Ġeasier": 3821,
      "Ġgar": 3822,
      "Ġjoin": 3823,
      "Ġfra": 3824,
      "26": 3825,
      "bon": 3826,
      "urning": 3827,
      "cause": 3828,
      "rial": 3829,
      "Ġdegree": 3830,
      "Ġeight": 3831,
      "ĠEuropean": 3832,
      "order": 3833,
      "Ġvehicle": 3834,
      "iling": 3835,
      "ĠCle": 3836,
      "ĠTex": 3837,
      "Ġmoved": 3838,
      "Pro": 3839,
      "Ġhappened": 3840,
      "Ġreflect": 3841,
      "house": 3842,
      "Ġcontain": 3843,
      "ĠGreen": 3844,
      "Ġpow": 3845,
      "istry": 3846,
      "nded": 3847,
      "Ġlik": 3848,
      "Ġscience": 3849,
      "Ġble": 3850,
      "Ġsust": 3851,
      "Ġstrategy": 3852,
      "ĠMod": 3853,
      "Ġcomments": 3854,
      "icip": 3855,
      "well": 3856,
      "Ġchallenge": 3857,
      "itiz": 3858,
      "Ġattract": 3859,
      "ĠAM": 3860,
      "Ġpartner": 3861,
      "ourney": 3862,
      "Ġbasic": 3863,
      "ollow": 3864,
      "Ġmilitary": 3865,
      "Ġmer": 3866,
      "amic": 3867,
      "ĠBest": 3868,
      "Here": 3869,
      "isl": 3870,
      "Ġalbum": 3871,
      "vision": 3872,
      "hol": 3873,
      "Ġgreater": 3874,
      "ĠSuper": 3875,
      "istics": 3876,
      "Ġcry": 3877,
      "useum": 3878,
      "Ġhundred": 3879,
      "Ġmeasure": 3880,
      "Ġresponsible": 3881,
      "Ġoffering": 3882,
      "ooth": 3883,
      "Ġhelped": 3884,
      "ĠRepublic": 3885,
      "oted": 3886,
      "Ġpowerful": 3887,
      "Ġhus": 3888,
      "Ġlines": 3889,
      "col": 3890,
      "inger": 3891,
      "Ġtransport": 3892,
      "100": 3893,
      "ĠMany": 3894,
      "Ġfederal": 3895,
      "Ġaren": 3896,
      "Ġsports": 3897,
      "Ġ29": 3898,
      "28": 3899,
      "While": 3900,
      "Ġahead": 3901,
      "iny": 3902,
      "care": 3903,
      "Ġphoto": 3904,
      "ĠAssociation": 3905,
      "itect": 3906,
      "ĠPort": 3907,
      "Ġclient": 3908,
      "ĠInternet": 3909,
      "que": 3910,
      "Ġquarter": 3911,
      "arc": 3912,
      "ĠCouncil": 3913,
      "Ġtransfer": 3914,
      "Ġspread": 3915,
      "Ġsteps": 3916,
      "Ġabsolute": 3917,
      "Ġpages": 3918,
      "Ġwild": 3919,
      "Now": 3920,
      "Ġadjust": 3921,
      "ĠGood": 3922,
      "ĠIsrael": 3923,
      "Ġ2007": 3924,
      "rief": 3925,
      "ĠOther": 3926,
      "Ġdang": 3927,
      "Ġnotice": 3928,
      "place": 3929,
      "orrow": 3930,
      "cul": 3931,
      "coming": 3932,
      "Ġlargest": 3933,
      "Ġappreci": 3934,
      "Ġefforts": 3935,
      "Ġsurround": 3936,
      "Is": 3937,
      "Ġaccur": 3938,
      "ĠWork": 3939,
      "see": 3940,
      "term": 3941,
      "Ġproduce": 3942,
      "IG": 3943,
      "ĠMarket": 3944,
      "Ġdelivery": 3945,
      "ken": 3946,
      "Ġkitchen": 3947,
      "Ġcompon": 3948,
      "Ġgirls": 3949,
      "ĠMac": 3950,
      "Ġperhaps": 3951,
      "ĠResearch": 3952,
      "hens": 3953,
      "Ġwonderful": 3954,
      "ĠDevelop": 3955,
      "Ġafford": 3956,
      "iment": 3957,
      "ĠGold": 3958,
      "Ġstrength": 3959,
      "Ġpoor": 3960,
      "osing": 3961,
      "ĠCompany": 3962,
      "atively": 3963,
      "iant": 3964,
      "Ġstick": 3965,
      "ago": 3966,
      "la": 3967,
      "oos": 3968,
      "Ġpeace": 3969,
      "Ġsurface": 3970,
      "Ġchem": 3971,
      "By": 3972,
      "rem": 3973,
      "ĠRem": 3974,
      "Ġframe": 3975,
      "27": 3976,
      "Ġgone": 3977,
      "Ġhotel": 3978,
      "ĠHall": 3979,
      "Ġbottom": 3980,
      "Ġfollowed": 3981,
      "eds": 3982,
      "Ġcollabor": 3983,
      "ĠChurch": 3984,
      "aming": 3985,
      "ĠYear": 3986,
      "Ġannual": 3987,
      "OV": 3988,
      "Ġjobs": 3989,
      "Ġmiles": 3990,
      "pa": 3991,
      "ĠDesign": 3992,
      "ĠFound": 3993,
      "Ġexpand": 3994,
      "Ġguy": 3995,
      "Ġsetting": 3996,
      "Ġdouble": 3997,
      "itude": 3998,
      "Ġhelping": 3999,
      "Ġeval": 4000,
      "29": 4001,
      "overed": 4002,
      "Ġcompared": 4003,
      "Ġclot": 4004,
      "Ġslight": 4005,
      "ĠThursday": 4006,
      "Ġincome": 4007,
      "Ġlots": 4008,
      "Ġvirt": 4009,
      "Ġwww": 4010,
      "ĠAny": 4011,
      "Ġbrother": 4012,
      "ico": 4013,
      "Ġstar": 4014,
      "ĠIS": 4015,
      "ĠEduc": 4016,
      "Ġdecl": 4017,
      "set": 4018,
      "Ġfab": 4019,
      "ĠJames": 4020,
      "ĠBoard": 4021,
      "friend": 4022,
      "ĠTuesday": 4023,
      "ĠAnge": 4024,
      "ĠAnt": 4025,
      "Ġshop": 4026,
      "Ġguys": 4027,
      "ulf": 4028,
      "Ġextremely": 4029,
      "Ġbreat": 4030,
      "acity": 4031,
      "Ġregarding": 4032,
      "Un": 4033,
      "Ġtrou": 4034,
      "ĠBel": 4035,
      "ifying": 4036,
      "Ġpictures": 4037,
      "Ġoccas": 4038,
      "ĠInter": 4039,
      "Ġtruth": 4040,
      "Ġbrain": 4041,
      "Ġlength": 4042,
      "Ġprotection": 4043,
      "Ġnamed": 4044,
      "Ġ=": 4045,
      "inated": 4046,
      "LE": 4047,
      "Ġborn": 4048,
      "imal": 4049,
      "Ġsweet": 4050,
      "ĠOver": 4051,
      "Ġappoint": 4052,
      "Ġblue": 4053,
      "anging": 4054,
      "Ġexisting": 4055,
      "Ġsatisf": 4056,
      "ĠSol": 4057,
      "Ġserved": 4058,
      "Ġbill": 4059,
      "ĠWhy": 4060,
      "ero": 4061,
      "Ġsociety": 4062,
      "Ġfaith": 4063,
      "encies": 4064,
      "Ġappropriate": 4065,
      "lying": 4066,
      "akers": 4067,
      "IV": 4068,
      "Ġcho": 4069,
      "ĠCr": 4070,
      "Ġexperienced": 4071,
      "Ġworkers": 4072,
      "Ġfinish": 4073,
      "Ġreplace": 4074,
      "using": 4075,
      "rupt": 4076,
      "ustr": 4077,
      "ĠOffice": 4078,
      "ĠPri": 4079,
      "Ġpayment": 4080,
      "Ġobv": 4081,
      "Ġmovement": 4082,
      "Ġguarant": 4083,
      "Com": 4084,
      "leg": 4085,
      "eria": 4086,
      "ech": 4087,
      "Ġcontinu": 4088,
      "ĠBritish": 4089,
      "ĠCong": 4090,
      "Ġtrain": 4091,
      "ĠTexas": 4092,
      "Ġletter": 4093,
      "Ġaudience": 4094,
      "Ġweather": 4095,
      "Ġcritical": 4096,
      "Ġgenerally": 4097,
      "Ġstructure": 4098,
      "Ġkept": 4099,
      "dule": 4100,
      "ologies": 4101,
      "ston": 4102,
      "Ġgift": 4103,
      "Ġcast": 4104,
      "Ġlearned": 4105,
      "Ġarr": 4106,
      "raw": 4107,
      "Ġprimary": 4108,
      "ĠSpr": 4109,
      "asy": 4110,
      "Ġseeing": 4111,
      "ports": 4112,
      "Ġcontinued": 4113,
      "Ġpros": 4114,
      "apter": 4115,
      "Ġpopulation": 4116,
      "ker": 4117,
      "lies": 4118,
      "ĠHot": 4119,
      "usion": 4120,
      "Ġfant": 4121,
      "otes": 4122,
      "Ġopening": 4123,
      "ady": 4124,
      "ĠRich": 4125,
      "ĠChristian": 4126,
      "Ġsuff": 4127,
      "IP": 4128,
      "Ġadvantage": 4129,
      "Ġhusband": 4130,
      "ĠFlor": 4131,
      "Ġlarger": 4132,
      "Ġpsych": 4133,
      "Ġmethods": 4134,
      "Ġadop": 4135,
      "inally": 4136,
      "phone": 4137,
      "Ġbath": 4138,
      "ĠTy": 4139,
      "____": 4140,
      "Ġfactors": 4141,
      "Ġcamera": 4142,
      "ĠRet": 4143,
      "ĠWednesday": 4144,
      "Ġcove": 4145,
      "Ġrepe": 4146,
      "Ġcharacters": 4147,
      "Ġiniti": 4148,
      "iced": 4149,
      "ĠAustralia": 4150,
      "Ġeconomy": 4151,
      "Ġwat": 4152,
      "Ġcomfortable": 4153,
      "Ġorganizations": 4154,
      "ĠSur": 4155,
      "Ġrequires": 4156,
      "Ġreviews": 4157,
      "Ġpieces": 4158,
      "Ġwear": 4159,
      "Ġuseful": 4160,
      "Ġincred": 4161,
      "pective": 4162,
      "Ġutil": 4163,
      "Ġstream": 4164,
      "Ġfinished": 4165,
      "ym": 4166,
      "New": 4167,
      "90": 4168,
      "Ġmechan": 4169,
      "Ġhomes": 4170,
      "unte": 4171,
      "Ġjourney": 4172,
      "Ġcreative": 4173,
      "Ġboy": 4174,
      "icine": 4175,
      "Ġentertain": 4176,
      "Ġdrug": 4177,
      "Ġhom": 4178,
      "Ġ197": 4179,
      "Ġmodels": 4180,
      "Ġbackground": 4181,
      "Ġestablished": 4182,
      "Ġbiggest": 4183,
      "These": 4184,
      "lands": 4185,
      "TS": 4186,
      "ĠWindows": 4187,
      "ipped": 4188,
      "Ġonto": 4189,
      "Ġfigure": 4190,
      "Ġdemonstr": 4191,
      "Ġcells": 4192,
      "CC": 4193,
      "Ġstorage": 4194,
      "Ġguid": 4195,
      "Ġthank": 4196,
      "Ġesc": 4197,
      "ij": 4198,
      "imb": 4199,
      "Ġplus": 4200,
      "rey": 4201,
      "Ġchallenges": 4202,
      "Ġelectric": 4203,
      "Ġharm": 4204,
      "ĠRom": 4205,
      "ae": 4206,
      "Ġcasino": 4207,
      "Ġye": 4208,
      "Ġestablish": 4209,
      "Ġtend": 4210,
      "Ġreality": 4211,
      "Ġpassed": 4212,
      "Ġconnection": 4213,
      "ĠLord": 4214,
      "ses": 4215,
      "Ġir": 4216,
      "Ġmission": 4217,
      "ĠMem": 4218,
      "Ġdisapp": 4219,
      "ĠOF": 4220,
      "ĠFrench": 4221,
      "Ġanti": 4222,
      "ĠOnce": 4223,
      "ĠGeneral": 4224,
      "33": 4225,
      "iled": 4226,
      "iques": 4227,
      "ĠMichael": 4228,
      "ĠSk": 4229,
      "Ġâ": 4230,
      "65": 4231,
      "Ġfinding": 4232,
      "ĠBill": 4233,
      "Ġunit": 4234,
      "vere": 4235,
      "Ġbow": 4236,
      "EM": 4237,
      "Ġtherefore": 4238,
      "Ġdriving": 4239,
      "Ġhighest": 4240,
      "Ġvill": 4241,
      "Ġexperiences": 4242,
      "erry": 4243,
      "Ġhaven": 4244,
      "Ġolder": 4245,
      "Ġcompleted": 4246,
      "Ġtips": 4247,
      "ĠPC": 4248,
      "Ġbeg": 4249,
      "olic": 4250,
      "Ġknows": 4251,
      "roid": 4252,
      "Ġnovel": 4253,
      "Ġleader": 4254,
      "Ġdiet": 4255,
      "ĠEv": 4256,
      "Ġmanufacture": 4257,
      "Ġheavy": 4258,
      "IM": 4259,
      "Ġsecure": 4260,
      "ĠSub": 4261,
      "ĠOh": 4262,
      "Ġresist": 4263,
      "ĠBank": 4264,
      "porary": 4265,
      "ĠSince": 4266,
      "ĠPublic": 4267,
      "ĠRoad": 4268,
      "ĠBra": 4269,
      "Ġexhib": 4270,
      "aven": 4271,
      "bu": 4272,
      "ĠAnn": 4273,
      "ĠBig": 4274,
      "ios": 4275,
      "ĠST": 4276,
      "Ġshared": 4277,
      "Ġchann": 4278,
      "Ġactual": 4279,
      "Ġstatus": 4280,
      "ado": 4281,
      "Ġcolle": 4282,
      "inese": 4283,
      "Ġcards": 4284,
      "Ġtoward": 4285,
      "DA": 4286,
      "gal": 4287,
      "unately": 4288,
      "Ġcompl": 4289,
      "ĠTwitter": 4290,
      "Ġmanage": 4291,
      "ĠMag": 4292,
      "ĠWhe": 4293,
      "udd": 4294,
      "Ġ80": 4295,
      "Ġcalls": 4296,
      "Ġpool": 4297,
      "sey": 4298,
      "Ġcommunities": 4299,
      "riage": 4300,
      "Ġacadem": 4301,
      "atically": 4302,
      "works": 4303,
      "Ġcoffee": 4304,
      "Ġmist": 4305,
      "ression": 4306,
      "rees": 4307,
      "Ġwouldn": 4308,
      "ĠMart": 4309,
      "za": 4310,
      "Ġbatter": 4311,
      "ooking": 4312,
      "ĠSee": 4313,
      "ĠPlan": 4314,
      "ĠReview": 4315,
      "Ġretail": 4316,
      "Ġprec": 4317,
      "ĠAv": 4318,
      "men": 4319,
      "roud": 4320,
      "Please": 4321,
      "Ġmill": 4322,
      "ĠLife": 4323,
      "ĠDirector": 4324,
      "Ġhar": 4325,
      "itors": 4326,
      "ĠIT": 4327,
      "Ġdoctor": 4328,
      "Ġnames": 4329,
      "ĠMary": 4330,
      "asure": 4331,
      "Ġstandards": 4332,
      "Ġowner": 4333,
      "Ġpray": 4334,
      "Ġrefer": 4335,
      "ĠJew": 4336,
      "nding": 4337,
      "Ġdied": 4338,
      "rowd": 4339,
      "Ġsecret": 4340,
      "Ġcivil": 4341,
      "ĠRec": 4342,
      "last": 4343,
      "gment": 4344,
      "ĠCare": 4345,
      "Ġfan": 4346,
      "estival": 4347,
      "ĠMicro": 4348,
      "Ġparties": 4349,
      "enses": 4350,
      "uty": 4351,
      "Ġdaughter": 4352,
      "Ġcentury": 4353,
      "Ġgun": 4354,
      "Ġcommunication": 4355,
      "âĢĿ,": 4356,
      "ĠPeople": 4357,
      "standing": 4358,
      "know": 4359,
      "Ġproduced": 4360,
      "Ġwhatever": 4361,
      "entially": 4362,
      "OW": 4363,
      "Ġdetermine": 4364,
      "ĠClass": 4365,
      "Ġsolid": 4366,
      "Ġlands": 4367,
      "text": 4368,
      "Ġearth": 4369,
      "odes": 4370,
      "ampions": 4371,
      "Ġlimit": 4372,
      "ss": 4373,
      "ĠBecause": 4374,
      "gn": 4375,
      "ĠClub": 4376,
      "Ġscore": 4377,
      "osure": 4378,
      "Ġscen": 4379,
      "Ġmeant": 4380,
      "Ġremind": 4381,
      "ĠSam": 4382,
      "Ġviews": 4383,
      "Ġplaced": 4384,
      "Ġdrop": 4385,
      "Ġmaster": 4386,
      "Ġbalance": 4387,
      "azon": 4388,
      "Ġ@": 4389,
      "Ġconference": 4390,
      "ĠManagement": 4391,
      "Ġscene": 4392,
      "Ġremains": 4393,
      "ipe": 4394,
      "Ġsto": 4395,
      "box": 4396,
      "cript": 4397,
      "lig": 4398,
      "Ġprot": 4399,
      "Ġcovered": 4400,
      "free": 4401,
      "acing": 4402,
      "itness": 4403,
      "Ġtraffic": 4404,
      "Ġ2006": 4405,
      "Ġhappens": 4406,
      "Ġreli": 4407,
      "Ġflav": 4408,
      "500": 4409,
      "Ġrob": 4410,
      "iation": 4411,
      "amily": 4412,
      "Ġfiles": 4413,
      "Ġlose": 4414,
      "soft": 4415,
      "ona": 4416,
      "ĠApple": 4417,
      "Ġfashion": 4418,
      "ander": 4419,
      "ĠBay": 4420,
      "Ġclaims": 4421,
      "ĠThom": 4422,
      "rab": 4423,
      "Ġhospital": 4424,
      "rian": 4425,
      "uman": 4426,
      "Ġelements": 4427,
      "Ġselection": 4428,
      "hips": 4429,
      "Ġdeveloping": 4430,
      "Ġideal": 4431,
      "umn": 4432,
      "Ġbecomes": 4433,
      "itar": 4434,
      "Ġwindow": 4435,
      "Ġwaiting": 4436,
      "Ġthanks": 4437,
      "ĠInstitute": 4438,
      "Ġexercise": 4439,
      "Ġsym": 4440,
      "overy": 4441,
      "hem": 4442,
      "ĠRob": 4443,
      "Ġvideos": 4444,
      "Ġruns": 4445,
      "Ġpassion": 4446,
      "Ġtom": 4447,
      "Ġ90": 4448,
      "ĠEach": 4449,
      "ervation": 4450,
      "ĠMake": 4451,
      "Ġlinks": 4452,
      "Ġrelax": 4453,
      "ĠRel": 4454,
      "Ġingred": 4455,
      "Ġearn": 4456,
      "Ġfish": 4457,
      "Ġkeeping": 4458,
      "UR": 4459,
      "orial": 4460,
      "Ġmanager": 4461,
      "vention": 4462,
      "Ġrich": 4463,
      "ĠCommission": 4464,
      "Don": 4465,
      "Ġforeign": 4466,
      "icks": 4467,
      "lor": 4468,
      "Ġdescribed": 4469,
      "ĠCam": 4470,
      "Â®": 4471,
      "Con": 4472,
      "Ġmatt": 4473,
      "Ġargu": 4474,
      "Ġevening": 4475,
      "Ġmentioned": 4476,
      "with": 4477,
      "Ġwedding": 4478,
      "Se": 4479,
      "Ġforms": 4480,
      "Ġcompetition": 4481,
      "Some": 4482,
      "ading": 4483,
      "Ġtim": 4484,
      "Ġrare": 4485,
      "Ġ31": 4486,
      "ĠSun": 4487,
      "iller": 4488,
      "inn": 4489,
      "Ġfunds": 4490,
      "ĠBre": 4491,
      "Ġimpl": 4492,
      "Ġstreet": 4493,
      "Ġpaint": 4494,
      "ĠIns": 4495,
      "Ġgain": 4496,
      "ĠHel": 4497,
      "Ġshowed": 4498,
      "Ġprepared": 4499,
      "ĠObama": 4500,
      "yer": 4501,
      "Ġteaching": 4502,
      "Ġgrant": 4503,
      "ula": 4504,
      "Ġbon": 4505,
      "Ġtechnical": 4506,
      "Ġtesting": 4507,
      "miss": 4508,
      "ĠFlorida": 4509,
      "Ġcontinues": 4510,
      "Ġefficient": 4511,
      "anta": 4512,
      "Ġestate": 4513,
      "semb": 4514,
      "Ġoperations": 4515,
      "Ġmemory": 4516,
      "gency": 4517,
      "Ġpresented": 4518,
      "Ġopened": 4519,
      "Ġspring": 4520,
      "ĠSal": 4521,
      "hy": 4522,
      "Ġlaunch": 4523,
      "Ġcaused": 4524,
      "fast": 4525,
      "Pl": 4526,
      "ĠUse": 4527,
      "Ġboo": 4528,
      "TH": 4529,
      "ĠTime": 4530,
      "ota": 4531,
      "Ġrap": 4532,
      "ĠRock": 4533,
      "Ġthousands": 4534,
      "**": 4535,
      "Ġcounter": 4536,
      "Ġcentral": 4537,
      "Ġdirection": 4538,
      "ĠSa": 4539,
      "ĠChild": 4540,
      "Ġwine": 4541,
      "Ġguess": 4542,
      "ĠSl": 4543,
      "Ġcitiz": 4544,
      "Ġfurn": 4545,
      "osis": 4546,
      "Ar": 4547,
      "Ġepis": 4548,
      "amin": 4549,
      "Ġton": 4550,
      "ĠUSA": 4551,
      "Ġstation": 4552,
      "Ġexclus": 4553,
      "ĠPhil": 4554,
      "ads": 4555,
      "Ġflu": 4556,
      "Ġdiscover": 4557,
      "actions": 4558,
      "Ġpolic": 4559,
      "Ġflex": 4560,
      "Ġshape": 4561,
      "?\"": 4562,
      "Ġluck": 4563,
      "Ġeth": 4564,
      "Ġvalues": 4565,
      "Ġmajority": 4566,
      "bed": 4567,
      "eed": 4568,
      "igned": 4569,
      "ĠPR": 4570,
      "inct": 4571,
      "apers": 4572,
      "Ġbutton": 4573,
      "ented": 4574,
      "Ġbecoming": 4575,
      "ĠLou": 4576,
      "ĠTop": 4577,
      "Ġconven": 4578,
      "Ġtrial": 4579,
      "ĠPet": 4580,
      "Ġlegisl": 4581,
      "Ġclearly": 4582,
      "95": 4583,
      "44": 4584,
      "Ġforget": 4585,
      "ĠMiss": 4586,
      "Ġplenty": 4587,
      "Ġsenior": 4588,
      "Ġsession": 4589,
      "iency": 4590,
      "Ġsustain": 4591,
      "ĠHist": 4592,
      "ĠEngland": 4593,
      "PA": 4594,
      "enture": 4595,
      "ĠEducation": 4596,
      "ctors": 4597,
      "ĠRiver": 4598,
      "ĠSing": 4599,
      "Ġlock": 4600,
      "Ġsexual": 4601,
      "Ġloan": 4602,
      "pan": 4603,
      "Not": 4604,
      "Ġsugar": 4605,
      "Ġdat": 4606,
      "ĠAlthough": 4607,
      "Ġthus": 4608,
      "Ġwatching": 4609,
      "osh": 4610,
      "mail": 4611,
      "but": 4612,
      "iers": 4613,
      "Ġhandle": 4614,
      "Ġsources": 4615,
      "CH": 4616,
      "Ġunc": 4617,
      "ĠPress": 4618,
      "Ġvision": 4619,
      "tenance": 4620,
      "osition": 4621,
      "ĠCap": 4622,
      "Ġotherwise": 4623,
      "Ġcapacity": 4624,
      "Ġspending": 4625,
      "Ġseemed": 4626,
      "Ġcris": 4627,
      "Ġremove": 4628,
      "Ġ70": 4629,
      "Ġincor": 4630,
      "Ġcraft": 4631,
      "Ġadding": 4632,
      "Ġcatch": 4633,
      "ki": 4634,
      "Ġgraph": 4635,
      "ka": 4636,
      "Ġleaving": 4637,
      "ĠStr": 4638,
      "ĠChinese": 4639,
      "ĠFore": 4640,
      "isco": 4641,
      "Ġdecisions": 4642,
      "ĠCamp": 4643,
      "Ġwinter": 4644,
      "ror": 4645,
      "Ġbeat": 4646,
      "ĠMal": 4647,
      "Ġrelevant": 4648,
      "icon": 4649,
      "uled": 4650,
      "NA": 4651,
      "Ġfootball": 4652,
      "Ġjump": 4653,
      "ette": 4654,
      "Ġwilling": 4655,
      "Ġmental": 4656,
      "Ġrank": 4657,
      "ooper": 4658,
      "Ġtask": 4659,
      "Ġfol": 4660,
      "ipp": 4661,
      "ĠOnline": 4662,
      "Ġrelationships": 4663,
      "arge": 4664,
      "Ġjournal": 4665,
      "state": 4666,
      "Ġwelcome": 4667,
      "Ġfill": 4668,
      "oto": 4669,
      "Ġsand": 4670,
      "Ġapprox": 4671,
      "Ġdecide": 4672,
      "Ġofficials": 4673,
      "Ġmicro": 4674,
      "Ġice": 4675,
      "Ġadvance": 4676,
      "ĠBen": 4677,
      "Ġcloud": 4678,
      "Ġindependent": 4679,
      "Ġschedule": 4680,
      "orney": 4681,
      "ĠWater": 4682,
      "gery": 4683,
      "Ġexcited": 4684,
      "Ġplants": 4685,
      "RA": 4686,
      "Ġstarts": 4687,
      "Ġclosed": 4688,
      "night": 4689,
      "azine": 4690,
      "Ġpractices": 4691,
      "Ġdedicated": 4692,
      "ĠCommit": 4693,
      "Ġrecords": 4694,
      "Ġpresence": 4695,
      "iliar": 4696,
      "ĠDown": 4697,
      "ĠPower": 4698,
      "Ġnor": 4699,
      "Ġnumerous": 4700,
      "ception": 4701,
      "Ġcoach": 4702,
      "Ġestim": 4703,
      "Ġvictim": 4704,
      "ĠAfrica": 4705,
      "Ġbehavior": 4706,
      "ternal": 4707,
      "Ġappears": 4708,
      "ĠDec": 4709,
      "Ġcrowd": 4710,
      "Ġtransl": 4711,
      "ĠLike": 4712,
      "Ġtree": 4713,
      "door": 4714,
      "ĠTom": 4715,
      "fit": 4716,
      "Ġactions": 4717,
      "Ġproud": 4718,
      "Ġdiagn": 4719,
      "Ġcontains": 4720,
      "ĠMex": 4721,
      "Ġdespite": 4722,
      "Ġvir": 4723,
      "Ġexperts": 4724,
      "Ġmarkets": 4725,
      "Ġleadership": 4726,
      "Ġegg": 4727,
      "olate": 4728,
      "OP": 4729,
      "Ġconduct": 4730,
      "ĠStar": 4731,
      "Ġfamous": 4732,
      "iture": 4733,
      "abilities": 4734,
      "Ġartist": 4735,
      "asp": 4736,
      "ĠJo": 4737,
      "Ġpair": 4738,
      "Ġsumm": 4739,
      "Ġraised": 4740,
      "Ġsmaller": 4741,
      "icken": 4742,
      "Ġ35": 4743,
      "going": 4744,
      "Ġsty": 4745,
      "ĠCheck": 4746,
      "antic": 4747,
      "Ġagreement": 4748,
      "berg": 4749,
      "Ġtaste": 4750,
      "Ġclasses": 4751,
      "Ġinjury": 4752,
      "cel": 4753,
      "Ġbuying": 4754,
      "36": 4755,
      "oop": 4756,
      "ĠScience": 4757,
      "aked": 4758,
      "uries": 4759,
      "Ġ>": 4760,
      "ĠMat": 4761,
      "ĠCongress": 4762,
      "log": 4763,
      "ĠLear": 4764,
      "ĠAP": 4765,
      "Ġessay": 4766,
      "Ġagency": 4767,
      "Ġanimals": 4768,
      "ĠUnder": 4769,
      "edy": 4770,
      "Ġ2005": 4771,
      "Ġsch": 4772,
      "ĠInformation": 4773,
      "Ġshowing": 4774,
      "Ġlaws": 4775,
      "icago": 4776,
      "estic": 4777,
      "ugg": 4778,
      "Ġcars": 4779,
      "outhern": 4780,
      "Ġupdate": 4781,
      "ĠVis": 4782,
      "Ġfocused": 4783,
      "Ġexplore": 4784,
      "Ġresidents": 4785,
      "Ġhonest": 4786,
      "ixt": 4787,
      "From": 4788,
      "BS": 4789,
      "Ġmotor": 4790,
      "ĠVir": 4791,
      "Ġminute": 4792,
      "Ġsector": 4793,
      "ĠMil": 4794,
      "erg": 4795,
      "Ġdecor": 4796,
      "Ġidentify": 4797,
      "alls": 4798,
      "Ġshopping": 4799,
      "ĠSil": 4800,
      "itz": 4801,
      "Ġcab": 4802,
      "Ġarchitect": 4803,
      "CA": 4804,
      "Ġrat": 4805,
      "Ġign": 4806,
      "ĠDet": 4807,
      "Ġseparate": 4808,
      "active": 4809,
      "Ġworry": 4810,
      "Ġdriver": 4811,
      "ĠCur": 4812,
      "rehens": 4813,
      "Ġvolunte": 4814,
      "ĠVe": 4815,
      "umber": 4816,
      "ferences": 4817,
      "Ġsympt": 4818,
      "\",": 4819,
      "Ġended": 4820,
      "ocal": 4821,
      "Ġemp": 4822,
      "Ġcore": 4823,
      "Ġthoughts": 4824,
      "Ġvisual": 4825,
      "Ġsmooth": 4826,
      "Ġkid": 4827,
      "unction": 4828,
      "Ġinitial": 4829,
      "ĠSmith": 4830,
      "ishes": 4831,
      "Ġcoverage": 4832,
      "point": 4833,
      "isation": 4834,
      "Ġmo": 4835,
      "no": 4836,
      "Ġcircum": 4837,
      "Ġmort": 4838,
      "roy": 4839,
      "ĠClick": 4840,
      "how": 4841,
      "ĠSum": 4842,
      "ste": 4843,
      "ĠMount": 4844,
      "Ġbright": 4845,
      "Ġchanging": 4846,
      "38": 4847,
      "ga": 4848,
      "ĠLake": 4849,
      "ĠToday": 4850,
      "Ġposted": 4851,
      "Ġship": 4852,
      "ĠSocial": 4853,
      "win": 4854,
      "Ab": 4855,
      "Ġvote": 4856,
      "Ġrule": 4857,
      "Ġoperating": 4858,
      "esome": 4859,
      "Ġbrief": 4860,
      "Ġfacilities": 4861,
      ");": 4862,
      "Ġopinion": 4863,
      "Ġdelic": 4864,
      "Ġcream": 4865,
      "Ġdepartment": 4866,
      "Ġleaves": 4867,
      "IA": 4868,
      "Ġreached": 4869,
      "Ġadvanced": 4870,
      "ĠBet": 4871,
      "Ġvs": 4872,
      "Ġsnow": 4873,
      "More": 4874,
      "ĠGovernment": 4875,
      "MS": 4876,
      "Ġtemperature": 4877,
      "ĠDevelopment": 4878,
      "Ġlisted": 4879,
      "ĠProject": 4880,
      "ano": 4881,
      "Ġarm": 4882,
      "Ġdepos": 4883,
      "Ġprofessionals": 4884,
      "bl": 4885,
      "ĠVol": 4886,
      "Ġadapt": 4887,
      "Ġfunding": 4888,
      "Ġrestaurant": 4889,
      "Ġsched": 4890,
      "Ġbeauty": 4891,
      "Ġholiday": 4892,
      "ĠTrump": 4893,
      "oma": 4894,
      "Ġ196": 4895,
      "Ġsitu": 4896,
      "Ġcompar": 4897,
      "Ġgarden": 4898,
      "ĠAlex": 4899,
      "ĠHy": 4900,
      "press": 4901,
      "BA": 4902,
      "Ġpreviously": 4903,
      "Ġenhance": 4904,
      "Ġsharing": 4905,
      "34": 4906,
      "Ġselected": 4907,
      "Ġconcerns": 4908,
      "Ġmanaged": 4909,
      "Ġur": 4910,
      "outs": 4911,
      "Ġwhom": 4912,
      "pet": 4913,
      "rd": 4914,
      "ĠTheir": 4915,
      "ĠWin": 4916,
      "Ġdiscussion": 4917,
      "Ġwaste": 4918,
      "Ġprinci": 4919,
      "craft": 4920,
      "Ġlisten": 4921,
      "ĠProfess": 4922,
      "ĠOpen": 4923,
      "Ġbrings": 4924,
      "Ġmail": 4925,
      "cohol": 4926,
      "illa": 4927,
      "Ġap": 4928,
      "Ġbul": 4929,
      "Ġdocuments": 4930,
      "Ġbought": 4931,
      "Ġputting": 4932,
      "Ġeating": 4933,
      "Ġoptim": 4934,
      "Ġencourage": 4935,
      "ĠGeorge": 4936,
      "ĠTO": 4937,
      "Ġpolicies": 4938,
      "Ġcombination": 4939,
      "Ġnotes": 4940,
      "ulated": 4941,
      "ĠDemocr": 4942,
      "Why": 4943,
      "llig": 4944,
      "Ġtechniques": 4945,
      "Ġalternative": 4946,
      "Ġmetal": 4947,
      "Ġspl": 4948,
      "55": 4949,
      "ĠAtt": 4950,
      "ĠAND": 4951,
      "ĠGlo": 4952,
      "Ġcorner": 4953,
      "reek": 4954,
      "Le": 4955,
      "Ġconnected": 4956,
      "known": 4957,
      "net": 4958,
      "Ġtrail": 4959,
      "Ġindic": 4960,
      "Ġasking": 4961,
      "Ġdinner": 4962,
      "life": 4963,
      "rad": 4964,
      "Ġslightly": 4965,
      "ĠCommittee": 4966,
      "Ġsem": 4967,
      "Ġabsolutely": 4968,
      "!âĢĿ": 4969,
      "Ġteacher": 4970,
      "Ġartists": 4971,
      "cket": 4972,
      "Ġclassic": 4973,
      "Ġconcent": 4974,
      "Ġchair": 4975,
      "Ġthr": 4976,
      "Ġthrow": 4977,
      "ĠIsland": 4978,
      "ructure": 4979,
      "Ġfee": 4980,
      "Ġmedium": 4981,
      "Ġwinning": 4982,
      "Ġproperties": 4983,
      "Ġrid": 4984,
      "Ġlaun": 4985,
      "Ġwalking": 4986,
      "Acc": 4987,
      "Ġsea": 4988,
      "race": 4989,
      "atures": 4990,
      "ĠFood": 4991,
      "Ġbattle": 4992,
      "Ġallowing": 4993,
      "Ġ2000": 4994,
      "ĠBrown": 4995,
      "Ġdu": 4996,
      "Ġfabric": 4997,
      "Ġspect": 4998,
      "Ġpoll": 4999,
      "Ġbird": 5000,
      "Ġposts": 5001,
      "Ġeventually": 5002,
      "Cont": 5003,
      "ĠJer": 5004,
      "Ġexpensive": 5005,
      "rive": 5006,
      "what": 5007,
      "word": 5008,
      "Ġteachers": 5009,
      "ya": 5010,
      "cipe": 5011,
      "Ġflat": 5012,
      "Your": 5013,
      "Ġmostly": 5014,
      "idential": 5015,
      "Ġmouth": 5016,
      "spe": 5017,
      "ection": 5018,
      "while": 5019,
      "Ġveget": 5020,
      "ĠCommunity": 5021,
      "ript": 5022,
      "Ġcolors": 5023,
      "tered": 5024,
      "ini": 5025,
      "ĠCentral": 5026,
      "Ġarticles": 5027,
      "ĠYes": 5028,
      "Ġenvironmental": 5029,
      "Ġresponsibility": 5030,
      "cient": 5031,
      "Ġshut": 5032,
      "ĠHill": 5033,
      "Ġselling": 5034,
      "ĠLove": 5035,
      "Ġseek": 5036,
      "Ġhearing": 5037,
      "88": 5038,
      "Ġfemale": 5039,
      "ĠFoundation": 5040,
      "Me": 5041,
      "37": 5042,
      "Ġfeels": 5043,
      "Ġfilled": 5044,
      "ĠWood": 5045,
      "Ġrooms": 5046,
      "ommod": 5047,
      "fr": 5048,
      "ĠAmazon": 5049,
      "Ġnegative": 5050,
      "Ġexciting": 5051,
      "Ġtypically": 5052,
      "Ġguests": 5053,
      "tion": 5054,
      "Ġpackage": 5055,
      "Ġfriendly": 5056,
      "Ġride": 5057,
      "ĠDistrict": 5058,
      "Ġgeneration": 5059,
      "Ġneighbor": 5060,
      "Ġsounds": 5061,
      "ĠArch": 5062,
      "ushing": 5063,
      "icians": 5064,
      "Ġconsid": 5065,
      "rim": 5066,
      "top": 5067,
      "ĠTwo": 5068,
      "Ġmur": 5069,
      "Ġrain": 5070,
      "Ġspecies": 5071,
      "Ġleads": 5072,
      "Ġfreed": 5073,
      "ulate": 5074,
      "Ġlabor": 5075,
      "Ad": 5076,
      "ENT": 5077,
      "Ġclimate": 5078,
      "Ġkick": 5079,
      "Ġhelpful": 5080,
      "Ġunless": 5081,
      "ucle": 5082,
      "unning": 5083,
      "Ġsongs": 5084,
      "Ġdistance": 5085,
      "32": 5086,
      "Ġsurvey": 5087,
      "Ġreturned": 5088,
      "esterday": 5089,
      "ĠCustom": 5090,
      "cont": 5091,
      "Ġentry": 5092,
      "Phone": 5093,
      "fin": 5094,
      "Ġdefense": 5095,
      "ĠCarol": 5096,
      "Ġassistance": 5097,
      "Ġdoubt": 5098,
      "ĠLu": 5099,
      "Ġrise": 5100,
      "ĠCD": 5101,
      "Ġproceed": 5102,
      "hab": 5103,
      "ĠTimes": 5104,
      "Ġrepair": 5105,
      "Ġsouth": 5106,
      "rolled": 5107,
      "Ġaccompl": 5108,
      "ĠThanks": 5109,
      "Ġprocesses": 5110,
      "Ġju": 5111,
      "Ġinfluence": 5112,
      "which": 5113,
      "ĠMain": 5114,
      "ĠPay": 5115,
      "ĠFranc": 5116,
      "Ġsteel": 5117,
      "ĠDiv": 5118,
      "ĠBlue": 5119,
      "resp": 5120,
      "ĠChicago": 5121,
      "Ġdebt": 5122,
      "Ġadministration": 5123,
      "Ġkilled": 5124,
      "Ġpal": 5125,
      "Ġoperation": 5126,
      "ĠMad": 5127,
      "Ġcommitted": 5128,
      "Ġmap": 5129,
      "Ġmale": 5130,
      "fortunately": 5131,
      "essions": 5132,
      "Ġimportance": 5133,
      "Ġapplied": 5134,
      "Ġdisp": 5135,
      "However": 5136,
      "Ġ2021": 5137,
      "orter": 5138,
      "ifts": 5139,
      "Ġfuel": 5140,
      "Ġjoint": 5141,
      "IR": 5142,
      "Ġtransform": 5143,
      "ius": 5144,
      "39": 5145,
      "uable": 5146,
      "ups": 5147,
      "Ġmeasures": 5148,
      "ĠWho": 5149,
      "Ġingredients": 5150,
      "Ġarrest": 5151,
      "Ġradio": 5152,
      "ĠEngine": 5153,
      "ĠScott": 5154,
      "Ġjoined": 5155,
      "Ġtight": 5156,
      "ĠGrand": 5157,
      "Ġperformed": 5158,
      "Ġnorth": 5159,
      "ĠJournal": 5160,
      "ĠMass": 5161,
      "App": 5162,
      "Ġtheme": 5163,
      "ĠAmericans": 5164,
      "Ġban": 5165,
      "odies": 5166,
      "Ġcheap": 5167,
      "48": 5168,
      "ĠBack": 5169,
      "ushed": 5170,
      "Ġsport": 5171,
      "ĠLeague": 5172,
      "Ġmarried": 5173,
      "osen": 5174,
      "ĠNor": 5175,
      "ye": 5176,
      "Ġer": 5177,
      "Ġfees": 5178,
      "ĠFire": 5179,
      "ears": 5180,
      "Ġsequ": 5181,
      "nel": 5182,
      "Ġcities": 5183,
      "Ġintellig": 5184,
      "asks": 5185,
      "agram": 5186,
      "Ġourselves": 5187,
      "à¤": 5188,
      "Ġdistrict": 5189,
      "ĠTor": 5190,
      "OD": 5191,
      "isher": 5192,
      "Ġmulti": 5193,
      "Ġwebsites": 5194,
      "Ġaccident": 5195,
      "Ġpromot": 5196,
      "Ġscale": 5197,
      "Ġbrows": 5198,
      "igr": 5199,
      "Ġreaders": 5200,
      "ograp": 5201,
      "Ġ2004": 5202,
      "Ġyouth": 5203,
      "Ġcontext": 5204,
      "Ĥ¬": 5205,
      "Ġsav": 5206,
      "ocolate": 5207,
      "Ġsigned": 5208,
      "Ġexchange": 5209,
      "Ġdiscount": 5210,
      "poses": 5211,
      "ĠReal": 5212,
      "Ġalle": 5213,
      "Ġmaintenance": 5214,
      "orthern": 5215,
      "Ġconversation": 5216,
      "noon": 5217,
      "Ġplays": 5218,
      "SA": 5219,
      "Ġmarriage": 5220,
      "rier": 5221,
      "Ġhttps": 5222,
      "oles": 5223,
      "Ġcorporate": 5224,
      "Ġwire": 5225,
      "ĠElect": 5226,
      "rical": 5227,
      "Ġbeach": 5228,
      "Ġ45": 5229,
      "Ġedge": 5230,
      "ĠQue": 5231,
      "Ġpredict": 5232,
      "Ġminimum": 5233,
      "eal": 5234,
      "âĢĺ": 5235,
      "Ġcart": 5236,
      "uce": 5237,
      "Ġsymptoms": 5238,
      "ĠRoy": 5239,
      "Ġplastic": 5240,
      "Ġweap": 5241,
      "otic": 5242,
      "Ġconflic": 5243,
      "Ġprofile": 5244,
      "ĠAccording": 5245,
      "Ġeffic": 5246,
      "Ġminor": 5247,
      "Ġrecommended": 5248,
      "ulture": 5249,
      "Ġproperly": 5250,
      "Ġstated": 5251,
      "Ġholding": 5252,
      "Ġconsumers": 5253,
      "Ġvisitors": 5254,
      "ĠUnion": 5255,
      "ĠFind": 5256,
      "Ġfamiliar": 5257,
      "ĠUN": 5258,
      "Ġvalid": 5259,
      "Ġseeking": 5260,
      "ĠDuring": 5261,
      "iance": 5262,
      "ivered": 5263,
      "ĠConst": 5264,
      "Ste": 5265,
      "Ġcleaning": 5266,
      "Ġthick": 5267,
      "Ġsitting": 5268,
      "ĠSociety": 5269,
      "bre": 5270,
      "arrant": 5271,
      "49": 5272,
      "zen": 5273,
      "ait": 5274,
      "kin": 5275,
      "Ġdyn": 5276,
      "Ġsets": 5277,
      "Read": 5278,
      "PR": 5279,
      "Ġnoted": 5280,
      "LC": 5281,
      "ania": 5282,
      "Ġchemical": 5283,
      "Ġquant": 5284,
      "47": 5285,
      "Ġchat": 5286,
      "Ġdur": 5287,
      "ĠCEO": 5288,
      "Ġstores": 5289,
      "Ġbusy": 5290,
      "Ġder": 5291,
      "Ġforces": 5292,
      "Get": 5293,
      "ĠMusic": 5294,
      "ĠWomen": 5295,
      "Ġmanner": 5296,
      "Ġment": 5297,
      "Ġappeared": 5298,
      "ĠBer": 5299,
      "ĠCard": 5300,
      "den": 5301,
      "ilding": 5302,
      "Ġraise": 5303,
      "ĠSpecial": 5304,
      "Ġexplain": 5305,
      "ordin": 5306,
      "water": 5307,
      "Ġstrategies": 5308,
      "Add": 5309,
      "Ġfellow": 5310,
      "Ġserving": 5311,
      "ĠData": 5312,
      "rooms": 5313,
      "Ġmotiv": 5314,
      "Ġaccommod": 5315,
      "fol": 5316,
      "ii": 5317,
      "cher": 5318,
      "atin": 5319,
      "Ġpanel": 5320,
      "Ġforg": 5321,
      "Ġcultural": 5322,
      "Ġcourses": 5323,
      "Ġteach": 5324,
      "Ġelection": 5325,
      "gl": 5326,
      "Ġenjoyed": 5327,
      "Ġinternal": 5328,
      "Ġfacility": 5329,
      "ĠSecurity": 5330,
      "ĠTur": 5331,
      "Ġcircumst": 5332,
      "Ġdie": 5333,
      "ags": 5334,
      "Ġtrees": 5335,
      "Ġtow": 5336,
      "istan": 5337,
      "Ġbond": 5338,
      "Ġpush": 5339,
      "Ġ500": 5340,
      "Ġli": 5341,
      "Ġspecifically": 5342,
      "Ġroof": 5343,
      "ĠJud": 5344,
      "Ġunits": 5345,
      "Ġswitch": 5346,
      "Ġpromote": 5347,
      "Ġwriter": 5348,
      "ĠTeam": 5349,
      "Ġcomprehens": 5350,
      "Ġmissing": 5351,
      "ĠIts": 5352,
      "Ġstret": 5353,
      "Ġpossibly": 5354,
      "Ġdesire": 5355,
      "ĠFort": 5356,
      "ĠMot": 5357,
      "Ġshipping": 5358,
      "Ġdetect": 5359,
      "avig": 5360,
      "Ġdatab": 5361,
      "CT": 5362,
      "idden": 5363,
      "Ġlandsc": 5364,
      "Ġtopic": 5365,
      "phas": 5366,
      "ĠColor": 5367,
      "olly": 5368,
      "cipl": 5369,
      "olars": 5370,
      "ĠEarth": 5371,
      "Ġanimal": 5372,
      "Ġacademic": 5373,
      "ĠShow": 5374,
      "Ġtotally": 5375,
      "Ġpurposes": 5376,
      "Ġconfidence": 5377,
      "Ġcharges": 5378,
      "Ġsigns": 5379,
      "ĠValley": 5380,
      "Ġupgr": 5381,
      "list": 5382,
      "Ġmovies": 5383,
      "Ġpregn": 5384,
      "ĠLast": 5385,
      "ĠGerman": 5386,
      "Ġlocations": 5387,
      "Ġcalling": 5388,
      "Ġinterests": 5389,
      "prise": 5390,
      "ĠAcadem": 5391,
      "Ġtells": 5392,
      "Ġtough": 5393,
      "Ġlived": 5394,
      "ĠFamily": 5395,
      "iminal": 5396,
      "Ġseat": 5397,
      "yan": 5398,
      "Ġpun": 5399,
      "Ne": 5400,
      "Ġserver": 5401,
      "31": 5402,
      "ĠAfrican": 5403,
      "igan": 5404,
      "Ġresearc": 5405,
      "Ġdesk": 5406,
      "Ġaspects": 5407,
      "Des": 5408,
      "ĠCall": 5409,
      "Ġath": 5410,
      "ĠHol": 5411,
      "ĠBeach": 5412,
      "oses": 5413,
      "Ġintended": 5414,
      "Ġcombined": 5415,
      "ĠLong": 5416,
      "Ġadults": 5417,
      "ĠTre": 5418,
      "ĠÐ": 5419,
      "anda": 5420,
      "fection": 5421,
      "Ġarg": 5422,
      "ĠProduct": 5423,
      "Ġvan": 5424,
      "Ġformat": 5425,
      "Ġrapid": 5426,
      "Ġreference": 5427,
      "Ġaccounts": 5428,
      "you": 5429,
      "Ġfif": 5430,
      "ĠRobert": 5431,
      "Ġconv": 5432,
      "ĠFrank": 5433,
      "Ġtrading": 5434,
      "Ġrecip": 5435,
      "Ġarrange": 5436,
      "ĠWord": 5437,
      "Ġinstance": 5438,
      "ĠTake": 5439,
      "ĠPeter": 5440,
      "po": 5441,
      "Ġspons": 5442,
      "ĠTim": 5443,
      "Ġoccup": 5444,
      "Ġmaximum": 5445,
      "ĠExper": 5446,
      "umin": 5447,
      "ĠID": 5448,
      "dden": 5449,
      "ĠFrance": 5450,
      "ometimes": 5451,
      "Ġfourth": 5452,
      "Ġstre": 5453,
      "ĠMicrosoft": 5454,
      "Ġannounce": 5455,
      "ĠMel": 5456,
      "ideo": 5457,
      "Ġremoved": 5458,
      "Ġfell": 5459,
      "46": 5460,
      "Ġvolume": 5461,
      "Ġgall": 5462,
      "Ġseconds": 5463,
      "Ġcontem": 5464,
      "ĠMedia": 5465,
      "rip": 5466,
      "ena": 5467,
      "that": 5468,
      "ĠRad": 5469,
      "Ġhyd": 5470,
      "iat": 5471,
      "Ġapps": 5472,
      "Ġapparent": 5473,
      "ĠDig": 5474,
      "ĠMer": 5475,
      "Ġmenu": 5476,
      "Ġtherapy": 5477,
      "Ġdepending": 5478,
      "ita": 5479,
      "iration": 5480,
      "Ġnine": 5481,
      "ulty": 5482,
      "Ġuns": 5483,
      "Ġpoly": 5484,
      "Ġdefend": 5485,
      "ĠHave": 5486,
      "Ġextensive": 5487,
      "Ġfruit": 5488,
      "Ġcondu": 5489,
      "ĠEnter": 5490,
      "ĠVirgin": 5491,
      "Ġcitizens": 5492,
      "Ġmir": 5493,
      "mes": 5494,
      "Ġsalt": 5495,
      "ĠWestern": 5496,
      "ums": 5497,
      "Ġdetailed": 5498,
      "Ġburn": 5499,
      "ifications": 5500,
      "ĠAtl": 5501,
      "Ġfailed": 5502,
      "ĠBur": 5503,
      "ĠParty": 5504,
      "ĠAL": 5505,
      "ĠMedical": 5506,
      "Ġviolence": 5507,
      "Ġdogs": 5508,
      "omin": 5509,
      "Ġsupposed": 5510,
      "Ġcaught": 5511,
      "Ġfactor": 5512,
      "ĠWil": 5513,
      "Ġsymb": 5514,
      "Ġrealize": 5515,
      "nect": 5516,
      "Ġprocessing": 5517,
      "Ġintroduced": 5518,
      "ĠLight": 5519,
      "bour": 5520,
      "Ġamb": 5521,
      "itionally": 5522,
      "ĠStand": 5523,
      "Ġemployee": 5524,
      "rag": 5525,
      "Ġapproximately": 5526,
      "Ġquiet": 5527,
      "Ġ2003": 5528,
      "Ġconsumer": 5529,
      "Ġstanding": 5530,
      "SP": 5531,
      "Ġdiscovered": 5532,
      "Ġelement": 5533,
      "ician": 5534,
      "Ġappearance": 5535,
      "Ġbound": 5536,
      "ĠOrgan": 5537,
      "Ġsudden": 5538,
      "Ġprovider": 5539,
      "Ġdollars": 5540,
      "Ġfold": 5541,
      "ola": 5542,
      "Ġboost": 5543,
      "ĠJim": 5544,
      "cles": 5545,
      "Ġfaster": 5546,
      "Ġafternoon": 5547,
      "iveness": 5548,
      "Ġdelivered": 5549,
      "Ġsurgery": 5550,
      "Ġsupported": 5551,
      "Ġgather": 5552,
      "Ġcauses": 5553,
      "Post": 5554,
      "Ġemergency": 5555,
      "Ġphil": 5556,
      "elines": 5557,
      "Ġdrugs": 5558,
      "Ġconsequ": 5559,
      "Ġbringing": 5560,
      "01": 5561,
      "rastructure": 5562,
      "Ġdance": 5563,
      "aks": 5564,
      "Ġcalcul": 5565,
      "okes": 5566,
      "ĠTest": 5567,
      "Ġparticipants": 5568,
      "met": 5569,
      "pected": 5570,
      "Ġadvertising": 5571,
      "ĠNY": 5572,
      "ĠHam": 5573,
      "Ġcomponents": 5574,
      "Ġrub": 5575,
      "Ġrecipe": 5576,
      "IF": 5577,
      "lines": 5578,
      "Ġdecre": 5579,
      "ĠÃ": 5580,
      "Ġran": 5581,
      "equ": 5582,
      "ĠGermany": 5583,
      "ensions": 5584,
      "ario": 5585,
      "Ġexecutive": 5586,
      "Ġchief": 5587,
      "Ġreligious": 5588,
      "aser": 5589,
      "Just": 5590,
      "Ġcommitment": 5591,
      "cean": 5592,
      "ĠLos": 5593,
      "Ġwitness": 5594,
      "ĠLouis": 5595,
      "Ġorders": 5596,
      "ĠOld": 5597,
      "Ġbutter": 5598,
      "Ġupdated": 5599,
      "Ġanywhere": 5600,
      "Ġrevenue": 5601,
      "Ġrom": 5602,
      "Ġfavour": 5603,
      "Ġproposed": 5604,
      "arsh": 5605,
      "Ġprepare": 5606,
      "Ġune": 5607,
      "adian": 5608,
      "Ġapproved": 5609,
      "DF": 5610,
      "Ġuniversity": 5611,
      "Ġimproved": 5612,
      "Ġassum": 5613,
      "Ġcommand": 5614,
      "According": 5615,
      "LA": 5616,
      "Ġhousing": 5617,
      "Ġvehicles": 5618,
      "Ġsuit": 5619,
      "Ġliqu": 5620,
      "Ġprison": 5621,
      "arp": 5622,
      "yal": 5623,
      "Ġfailure": 5624,
      "ĠThank": 5625,
      "Ġforced": 5626,
      "ĠMa": 5627,
      "Ġdecades": 5628,
      "ĠNov": 5629,
      "een": 5630,
      "ĠMont": 5631,
      "iest": 5632,
      "OC": 5633,
      "ĠCas": 5634,
      "Ġyes": 5635,
      "Ġconcerned": 5636,
      "Ġkill": 5637,
      "ĠWall": 5638,
      "ĠRE": 5639,
      "nergy": 5640,
      "Ġdetermined": 5641,
      "road": 5642,
      "Ġbegins": 5643,
      "Ġring": 5644,
      "Ġfreedom": 5645,
      "uts": 5646,
      "ĠTechnology": 5647,
      "Ġeducational": 5648,
      "Ġchoices": 5649,
      "Ġarrived": 5650,
      "Ġsides": 5651,
      "Ġfantastic": 5652,
      "Ġaid": 5653,
      "ĠOffic": 5654,
      "ems": 5655,
      "Ġreb": 5656,
      "eper": 5657,
      "ĠIll": 5658,
      "ĠFil": 5659,
      "ĠLo": 5660,
      "Ġswim": 5661,
      "tra": 5662,
      "ĠSand": 5663,
      "Ġlaunched": 5664,
      "Ġtechnologies": 5665,
      "ulations": 5666,
      "kins": 5667,
      "ĠAward": 5668,
      "oor": 5669,
      "Every": 5670,
      "Ġeditor": 5671,
      "Ġcomplic": 5672,
      "poration": 5673,
      "Ġmilk": 5674,
      "Ġgreatest": 5675,
      "Ġtests": 5676,
      "Ġweak": 5677,
      "Ġpaying": 5678,
      "Ġknowing": 5679,
      "Ġhundreds": 5680,
      "Ġsister": 5681,
      "Ġtun": 5682,
      "Ġshock": 5683,
      "Ġcop": 5684,
      "Ġalcohol": 5685,
      "Ġlux": 5686,
      "Ġlibrary": 5687,
      "Ġbroken": 5688,
      "hetic": 5689,
      "II": 5690,
      "ht": 5691,
      "77": 5692,
      "Ġliber": 5693,
      "encing": 5694,
      "Ġclinical": 5695,
      "kay": 5696,
      "ĠAbout": 5697,
      "ĠThomas": 5698,
      "Ġdesigns": 5699,
      "ĠKore": 5700,
      "ossible": 5701,
      "Ġworse": 5702,
      "Ġbelief": 5703,
      "Ġstars": 5704,
      "Ġprop": 5705,
      "luding": 5706,
      "ĠOnly": 5707,
      "Ġdial": 5708,
      "Ġlunch": 5709,
      "Ġconstit": 5710,
      "Ġreduced": 5711,
      "Can": 5712,
      "Ġturns": 5713,
      "lets": 5714,
      "ĠDi": 5715,
      "Ġstopped": 5716,
      "Ġflight": 5717,
      "orry": 5718,
      "Ġgoods": 5719,
      "Ġbreast": 5720,
      "Ġsquare": 5721,
      "ĠBi": 5722,
      "ilit": 5723,
      "hi": 5724,
      "hand": 5725,
      "ĠAndroid": 5726,
      "Ġworksh": 5727,
      "Ġhero": 5728,
      "Ġanx": 5729,
      "Ġang": 5730,
      "kes": 5731,
      "Ġvary": 5732,
      "Let": 5733,
      "Ġfeedback": 5734,
      "ðŁ": 5735,
      "Ġcrisis": 5736,
      "Ġbigger": 5737,
      "ĠBoth": 5738,
      "under": 5739,
      "Ġoccasion": 5740,
      "Ġbattery": 5741,
      "Ġbelong": 5742,
      "Ġteen": 5743,
      "ĠCy": 5744,
      "ĠYOU": 5745,
      "Ġperspective": 5746,
      "ria": 5747,
      "Ġrot": 5748,
      "Ġmode": 5749,
      "Ġeffectively": 5750,
      "âĦ": 5751,
      "Ġpu": 5752,
      ".âĢĻ": 5753,
      "Ġelimin": 5754,
      "Ġsupporting": 5755,
      "Ġremote": 5756,
      "Ġsignificantly": 5757,
      "Ġresol": 5758,
      "orough": 5759,
      "ĠMike": 5760,
      "Ġtelevision": 5761,
      "ĠSecret": 5762,
      "Ġtea": 5763,
      "Ġbrown": 5764,
      "Ġpure": 5765,
      "Ġsac": 5766,
      "Ġawesome": 5767,
      "Ġfunctions": 5768,
      "Ġagreed": 5769,
      "ĠNetwork": 5770,
      "Ġfle": 5771,
      "alled": 5772,
      "anish": 5773,
      "oration": 5774,
      "Ġcarried": 5775,
      "Ġtables": 5776,
      "Ġconcern": 5777,
      "May": 5778,
      "ibilities": 5779,
      "xy": 5780,
      "Well": 5781,
      "Ġconsidering": 5782,
      "oti": 5783,
      "Ġfoods": 5784,
      "Ġrecovery": 5785,
      "Ġkinds": 5786,
      "ĠJoe": 5787,
      "Ġhighlight": 5788,
      "ĠAT": 5789,
      "Ġmine": 5790,
      "Ġjudge": 5791,
      "??": 5792,
      "ownt": 5793,
      "ĠDen": 5794,
      "Ġspeech": 5795,
      "reens": 5796,
      "ĠJul": 5797,
      "Ġagent": 5798,
      "ĠMuseum": 5799,
      "CE": 5800,
      "Ġbrands": 5801,
      "Ġinspired": 5802,
      "burg": 5803,
      "urban": 5804,
      "ĠReport": 5805,
      "Ġofficer": 5806,
      "Ġinn": 5807,
      "ogue": 5808,
      "Last": 5809,
      "ĠMinister": 5810,
      "irty": 5811,
      "Ġherself": 5812,
      "Ġemotional": 5813,
      "Ġremark": 5814,
      "Ġcoast": 5815,
      "Ġpm": 5816,
      "Ġcategory": 5817,
      "ĠWilliam": 5818,
      "UT": 5819,
      "Ġtelling": 5820,
      "Ġneck": 5821,
      "Ġidentified": 5822,
      "irmed": 5823,
      "Ġdraft": 5824,
      "ĠId": 5825,
      "Ġcreation": 5826,
      "Ġtast": 5827,
      "05": 5828,
      "gage": 5829,
      "Ġaffected": 5830,
      "Bl": 5831,
      "Ġec": 5832,
      "never": 5833,
      "ĠGen": 5834,
      "pot": 5835,
      "ultural": 5836,
      "Ġbask": 5837,
      "!)": 5838,
      "Ġmeat": 5839,
      "Ġpractical": 5840,
      "Ġparking": 5841,
      "Ġexamples": 5842,
      "Ġexpertise": 5843,
      "ĠiPhone": 5844,
      "Ġproviders": 5845,
      "Ġexplained": 5846,
      "ĠMaster": 5847,
      "Ġepisode": 5848,
      "Ġwearing": 5849,
      "Ġmeal": 5850,
      "Ġlabel": 5851,
      "estyle": 5852,
      "related": 5853,
      "Ġjoy": 5854,
      "Yes": 5855,
      "Ġtheory": 5856,
      "Ġemphas": 5857,
      "ĠPerson": 5858,
      "Ġcomprehensive": 5859,
      "UN": 5860,
      "Ġcircumstances": 5861,
      "Ġtwice": 5862,
      "alian": 5863,
      "Ke": 5864,
      "Ġspeaking": 5865,
      "Ġterror": 5866,
      "FL": 5867,
      "ĠHuman": 5868,
      "Ġmatters": 5869,
      "Ġcompetitive": 5870,
      "azz": 5871,
      "aped": 5872,
      "Ġtreated": 5873,
      "Ġveter": 5874,
      "Ġtrouble": 5875,
      "SS": 5876,
      "prene": 5877,
      "ĠJose": 5878,
      "âĦ¢": 5879,
      "Ġvaluable": 5880,
      "ĠWhere": 5881,
      "78": 5882,
      "ĠVict": 5883,
      "ĠView": 5884,
      "Ġlit": 5885,
      "ĠGal": 5886,
      "Ġyesterday": 5887,
      "Ġfilms": 5888,
      "Ġmagn": 5889,
      "Ġsam": 5890,
      "Ġaudio": 5891,
      "merce": 5892,
      "ĠCath": 5893,
      "Ġadvis": 5894,
      "Ġends": 5895,
      "Ġfly": 5896,
      "ĠChris": 5897,
      "ĠLead": 5898,
      "Ġshoot": 5899,
      "ĠAngeles": 5900,
      "Ġupdates": 5901,
      "Ġcloser": 5902,
      "Ġsevere": 5903,
      "Ġunivers": 5904,
      "Ġsole": 5905,
      "ĠStart": 5906,
      "Ġremaining": 5907,
      "ĠCup": 5908,
      "Ġscr": 5909,
      "ĠHead": 5910,
      "Ġindustrial": 5911,
      "ĠDou": 5912,
      "gas": 5913,
      "ĠFund": 5914,
      "reprene": 5915,
      "Ġregistered": 5916,
      "Ġbike": 5917,
      "Ġtro": 5918,
      "ĠJapanese": 5919,
      "Ġregister": 5920,
      "Ġprotein": 5921,
      "Ġentirely": 5922,
      "66": 5923,
      "Ġmut": 5924,
      "Ġfort": 5925,
      "hent": 5926,
      "Ġdistribution": 5927,
      "Ġchart": 5928,
      "Ġodd": 5929,
      "ighter": 5930,
      "aren": 5931,
      "igration": 5932,
      "ĠTown": 5933,
      "Su": 5934,
      "oston": 5935,
      "ĠIP": 5936,
      "ĠGame": 5937,
      "edia": 5938,
      "ĠProte": 5939,
      "rete": 5940,
      "Ġwal": 5941,
      "Ġcommission": 5942,
      "Ġinstallation": 5943,
      "erves": 5944,
      "Ġcrime": 5945,
      "cking": 5946,
      "Ġconstruct": 5947,
      ":||": 5948,
      "Ġcolour": 5949,
      "Ġmassive": 5950,
      "rate": 5951,
      "Ġinnovative": 5952,
      "ĠList": 5953,
      "Ġauthority": 5954,
      "can": 5955,
      "Ġadvoc": 5956,
      "Ġneighborhood": 5957,
      "!\"": 5958,
      "real": 5959,
      "Ġissued": 5960,
      "Ġchain": 5961,
      "uality": 5962,
      "Ġdangerous": 5963,
      "ingly": 5964,
      "ĠOper": 5965,
      "wo": 5966,
      "tters": 5967,
      "Ġfollows": 5968,
      "Ġrelatively": 5969,
      "mosp": 5970,
      "oga": 5971,
      "ĠGar": 5972,
      "Ġinvolve": 5973,
      "Ġmere": 5974,
      "osoph": 5975,
      "Ġsuitable": 5976,
      "Ġvit": 5977,
      "Ġautomatically": 5978,
      "jo": 5979,
      "Ġiron": 5980,
      "ĠInvest": 5981,
      "Ġking": 5982,
      "lla": 5983,
      "Ġbuildings": 5984,
      "ĠProv": 5985,
      "Ġstone": 5986,
      "Ġpump": 5987,
      "Ġcentre": 5988,
      "Ġ32": 5989,
      "ĠSto": 5990,
      "Ġinvestors": 5991,
      "Ġexcess": 5992,
      "comm": 5993,
      "ĠMen": 5994,
      "Ġagencies": 5995,
      "Ġwindows": 5996,
      "ĠON": 5997,
      "Ġmal": 5998,
      "Ġidentity": 5999,
      "ulous": 6000,
      "Ġwealth": 6001,
      "Ġisland": 6002,
      "ias": 6003,
      "AG": 6004,
      "aded": 6005,
      "Ġaccepted": 6006,
      "Ġoblig": 6007,
      "ĠBob": 6008,
      "ĠSupport": 6009,
      "arian": 6010,
      "Ġboys": 6011,
      "ĠâĢ¢": 6012,
      "Ġinvestigation": 6013,
      "Ġinstalled": 6014,
      "ĠJohnson": 6015,
      "ĠInstead": 6016,
      "Ġrevealed": 6017,
      "Ġscientific": 6018,
      "Ġsubstant": 6019,
      "look": 6020,
      "ĠMo": 6021,
      "Ġparticipate": 6022,
      "Ġsad": 6023,
      "Ġplanned": 6024,
      "ev": 6025,
      "Ġenem": 6026,
      "Ġoutdoor": 6027,
      "ĠRev": 6028,
      "Ġresource": 6029,
      "ĠLab": 6030,
      "Ġfields": 6031,
      "rome": 6032,
      "cknow": 6033,
      "ĠPan": 6034,
      "Ġreput": 6035,
      "Ġchosen": 6036,
      "ĠWay": 6037,
      "Ġimagine": 6038,
      "Ġrough": 6039,
      "Ġmonit": 6040,
      "Ġconfirm": 6041,
      "hus": 6042,
      "ĠEconom": 6043,
      "Ġven": 6044,
      "Ġmoments": 6045,
      "Res": 6046,
      "Ġtopics": 6047,
      "Ġphotograph": 6048,
      "Ġperman": 6049,
      "Ġworldwide": 6050,
      "Ġmel": 6051,
      "eless": 6052,
      "Ġerror": 6053,
      "Ġadministr": 6054,
      "Ġnucle": 6055,
      "Ġnurs": 6056,
      "unting": 6057,
      "Ġsimpl": 6058,
      "Ġreceiving": 6059,
      "Ġanswers": 6060,
      "Ġforest": 6061,
      "ĠMcC": 6062,
      "atre": 6063,
      "Ġsoul": 6064,
      "Ġreliable": 6065,
      "ora": 6066,
      "ĠDev": 6067,
      "ĠCir": 6068,
      "Ġsurprise": 6069,
      "loc": 6070,
      "Ġcharged": 6071,
      "Ġassets": 6072,
      "Ġregularly": 6073,
      "uated": 6074,
      "Ġbonus": 6075,
      "apes": 6076,
      "Ġ2002": 6077,
      "ĠNOT": 6078,
      "ĠIndust": 6079,
      "Ġmotion": 6080,
      "tr": 6081,
      "Ġtail": 6082,
      "Ġenable": 6083,
      "ĠRussian": 6084,
      "ĠSeries": 6085,
      "Ġunf": 6086,
      "Ġrand": 6087,
      "mond": 6088,
      "pass": 6089,
      "abet": 6090,
      "Ġgrown": 6091,
      "Most": 6092,
      "Ġequal": 6093,
      "Ġgro": 6094,
      "Ġshares": 6095,
      "Ġprocedure": 6096,
      "Ġcritic": 6097,
      "Ġfulf": 6098,
      "Ġdiss": 6099,
      "iors": 6100,
      "Ġcutting": 6101,
      "ĠAdv": 6102,
      "EW": 6103,
      "bur": 6104,
      "Ġaccurate": 6105,
      "Ġmonthly": 6106,
      "Ġperfectly": 6107,
      "ĠAud": 6108,
      "Ġpurchased": 6109,
      "acks": 6110,
      "ien": 6111,
      "Ġconfig": 6112,
      "Ġinfrastructure": 6113,
      "hors": 6114,
      "Ġguest": 6115,
      "Ġinstitutions": 6116,
      "Ġrecorded": 6117,
      "Ġcro": 6118,
      "Te": 6119,
      "Ġsan": 6120,
      "ĠWeek": 6121,
      "irms": 6122,
      "Ġtickets": 6123,
      "Ġpicked": 6124,
      "ĠArts": 6125,
      "Ġhousehold": 6126,
      "Ġtaught": 6127,
      "anged": 6128,
      "Ġcriminal": 6129,
      "Ġofficers": 6130,
      "rics": 6131,
      "Fr": 6132,
      "Ġnone": 6133,
      "ĠLim": 6134,
      "Ġfixed": 6135,
      "Ġelectronic": 6136,
      "eries": 6137,
      "Ġcheese": 6138,
      "Ġaffordable": 6139,
      "Fe": 6140,
      "Ġsample": 6141,
      "Ġfrequently": 6142,
      "Ġusual": 6143,
      "Ġtrib": 6144,
      "ĠCB": 6145,
      "First": 6146,
      "Ġobvious": 6147,
      "Ġwarrant": 6148,
      "oosing": 6149,
      "ĠKeep": 6150,
      "Ġhappening": 6151,
      "ĠGlobal": 6152,
      "ĠFederal": 6153,
      "Ġcooking": 6154,
      "Ġlights": 6155,
      "respond": 6156,
      "Ġ2001": 6157,
      "Ġboat": 6158,
      "Ġhistorical": 6159,
      "Ġdoors": 6160,
      "ĠBas": 6161,
      "ef": 6162,
      "appy": 6163,
      "Ġfurniture": 6164,
      "iams": 6165,
      "Ġkeeps": 6166,
      "Ġsettings": 6167,
      "osite": 6168,
      "ĠMexico": 6169,
      "Ġhur": 6170,
      "west": 6171,
      "Ġvirtual": 6172,
      "Ġlicense": 6173,
      "Ġguarantee": 6174,
      "ua": 6175,
      "ĠChief": 6176,
      "Ġcrew": 6177,
      "ĠTem": 6178,
      "ĠKnow": 6179,
      "ĠJeff": 6180,
      "Ġconstantly": 6181,
      "weight": 6182,
      "lastname": 6183,
      "Ġchannel": 6184,
      "Ġcandidates": 6185,
      ".|": 6186,
      "Ġdim": 6187,
      "Ġrestrict": 6188,
      "Ġmanufacturing": 6189,
      "Ġprotected": 6190,
      "Ġmessages": 6191,
      "ĠThose": 6192,
      "comes": 6193,
      "ĠYe": 6194,
      "Ġchicken": 6195,
      "ĠHaw": 6196,
      "Ġrenew": 6197,
      "ĠManager": 6198,
      "emic": 6199,
      "ĠRussia": 6200,
      "ĠExt": 6201,
      "Ġhorse": 6202,
      "Ġbread": 6203,
      "Or": 6204,
      "Ġincredible": 6205,
      "Ġpositions": 6206,
      "Ġarms": 6207,
      "Ġplate": 6208,
      "pret": 6209,
      "Ġdeals": 6210,
      "ĠWhether": 6211,
      "Ġrandom": 6212,
      "luded": 6213,
      "Ġrisks": 6214,
      "ĠMartin": 6215,
      "See": 6216,
      "Che": 6217,
      "Ġemployment": 6218,
      "inch": 6219,
      "Ġsymbol": 6220,
      "Us": 6221,
      "En": 6222,
      "Another": 6223,
      "ĠAdminist": 6224,
      "Ġunlike": 6225,
      "Ġillustr": 6226,
      "ĠPlus": 6227,
      "sembly": 6228,
      "Ġlovely": 6229,
      "ĠSqu": 6230,
      "Ġconducted": 6231,
      "ĠFull": 6232,
      "cuit": 6233,
      "wing": 6234,
      "paper": 6235,
      "inding": 6236,
      "Ġtrend": 6237,
      "Tr": 6238,
      "icit": 6239,
      "ĠWild": 6240,
      "SE": 6241,
      "ĠIsl": 6242,
      "Ġ300": 6243,
      "Ġnavig": 6244,
      "GB": 6245,
      "ĠEr": 6246,
      "ĠSet": 6247,
      "ĠPolice": 6248,
      "aid": 6249,
      "ĠCat": 6250,
      "Ġholds": 6251,
      "anges": 6252,
      "ĠCentre": 6253,
      "Ġcovers": 6254,
      "Ġcounty": 6255,
      "gers": 6256,
      "Ġben": 6257,
      "Ġacknow": 6258,
      "ĠLink": 6259,
      "Any": 6260,
      "Ġmissed": 6261,
      "ĠStep": 6262,
      "inet": 6263,
      "Ġscript": 6264,
      "illy": 6265,
      "Ġexpression": 6266,
      "Ġengineering": 6267,
      "Ġchocolate": 6268,
      "Ġelig": 6269,
      "Ġgrade": 6270,
      "Ġroute": 6271,
      "odd": 6272,
      "ocation": 6273,
      "ĠWal": 6274,
      "ĠCH": 6275,
      "Ġdatabase": 6276,
      "Ġengage": 6277,
      "ĠCA": 6278,
      "Ġvictory": 6279,
      "ĠMur": 6280,
      "ĠConference": 6281,
      "Ġaffili": 6282,
      "orders": 6283,
      "ĠPenn": 6284,
      "Up": 6285,
      "Ġbreakfast": 6286,
      "Ġ36": 6287,
      "Ġefficiency": 6288,
      "Ġportion": 6289,
      "Ġcontro": 6290,
      "Ġappreciate": 6291,
      "âĢĻ.": 6292,
      "Ġabuse": 6293,
      "ĠPac": 6294,
      "ĠEnergy": 6295,
      "85": 6296,
      "Ġguard": 6297,
      "inos": 6298,
      "42": 6299,
      "Ġshoes": 6300,
      "abled": 6301,
      "oster": 6302,
      "cribe": 6303,
      "Ġclothes": 6304,
      "Ġcycle": 6305,
      "ca": 6306,
      "Qu": 6307,
      "ĠAsia": 6308,
      "Ġcontrast": 6309,
      "ĠSar": 6310,
      "Ġgrew": 6311,
      "Ġprocedures": 6312,
      "iety": 6313,
      "raq": 6314,
      "Ġresearchers": 6315,
      "ĠHistory": 6316,
      "eration": 6317,
      "Ġacid": 6318,
      "Ġatmosp": 6319,
      "Ġbless": 6320,
      "Ġforth": 6321,
      "Ġhonor": 6322,
      "ĠHD": 6323,
      "Ġinfo": 6324,
      "ĠAuthor": 6325,
      "Ġappeal": 6326,
      "Ġspr": 6327,
      "Ġentertainment": 6328,
      "Ġpremium": 6329,
      "Ġmedicine": 6330,
      "cers": 6331,
      ".'": 6332,
      "MA": 6333,
      "Ġlaugh": 6334,
      "Ġattacks": 6335,
      "Ġsick": 6336,
      "Once": 6337,
      "Ġorganic": 6338,
      "ĠBow": 6339,
      "Ġcarefully": 6340,
      "omy": 6341,
      "ĠVer": 6342,
      "Ġdisappoint": 6343,
      "Ġturning": 6344,
      "ĠSecond": 6345,
      "olar": 6346,
      "Ġtruck": 6347,
      "Ġinput": 6348,
      "Ġrestaurants": 6349,
      "ĠJones": 6350,
      "Ġdrivers": 6351,
      "Ġassign": 6352,
      "ÃŃ": 6353,
      "Ġpayments": 6354,
      "arrow": 6355,
      "ĠHen": 6356,
      "Ġdish": 6357,
      "Ġawareness": 6358,
      "Ġrecognized": 6359,
      "icing": 6360,
      "Ġjustice": 6361,
      "icial": 6362,
      "rum": 6363,
      "Ġfolks": 6364,
      "ĠGra": 6365,
      "Ġwalls": 6366,
      "Ġsin": 6367,
      "Ġtypical": 6368,
      "ĠMax": 6369,
      "ĠCanadian": 6370,
      "ala": 6371,
      "oking": 6372,
      "Ġgrab": 6373,
      "car": 6374,
      "Americ": 6375,
      "Ġroutine": 6376,
      "Ġfro": 6377,
      "aniel": 6378,
      "ĠLand": 6379,
      "ĠMaybe": 6380,
      "Ġcarbon": 6381,
      "ĠAustralian": 6382,
      "Ġattorney": 6383,
      "Ġvisiting": 6384,
      "Ġlayer": 6385,
      "Ġmeetings": 6386,
      "Ġinches": 6387,
      "Ġsituations": 6388,
      "lly": 6389,
      "Ġtalent": 6390,
      "Ġreasonable": 6391,
      "OVID": 6392,
      "Since": 6393,
      "Ġbelieved": 6394,
      "writ": 6395,
      "Ġlosing": 6396,
      "Ġped": 6397,
      "Ġcompens": 6398,
      "08": 6399,
      "ĠAnother": 6400,
      "ansion": 6401,
      "Am": 6402,
      "eline": 6403,
      "ĠCharl": 6404,
      "ĠMatt": 6405,
      "Im": 6406,
      "Ġshooting": 6407,
      "ĠBoston": 6408,
      "Ġstudio": 6409,
      "gend": 6410,
      "Ġdomestic": 6411,
      "Ġinstructions": 6412,
      "Ġprompt": 6413,
      "Ġteeth": 6414,
      "Ġchallenging": 6415,
      "inations": 6416,
      "ĠBefore": 6417,
      "Ġhealthcare": 6418,
      "Ġtasks": 6419,
      "TA": 6420,
      "hered": 6421,
      "person": 6422,
      "ĠPhot": 6423,
      "Ġfuck": 6424,
      "Ġwid": 6425,
      "host": 6426,
      "Ġdram": 6427,
      "Ġwinner": 6428,
      "ĠVirginia": 6429,
      "ĠHotel": 6430,
      "Ġdegrees": 6431,
      "ĠLee": 6432,
      "Ġcampus": 6433,
      "Ġextended": 6434,
      "inder": 6435,
      "Ġnoticed": 6436,
      "Ġregional": 6437,
      "Ġprofit": 6438,
      "Ġfeatured": 6439,
      "Ġupper": 6440,
      "ĠCarolina": 6441,
      "Ġfighting": 6442,
      "Ġentered": 6443,
      "achel": 6444,
      "Ġpresentation": 6445,
      "Ġsurrounding": 6446,
      "Ġsupports": 6447,
      "Ġdestroy": 6448,
      "Ġdistinct": 6449,
      "Ġsessions": 6450,
      "Ġoutput": 6451,
      "Ġvacc": 6452,
      "Ġstands": 6453,
      "date": 6454,
      "Ġsuggested": 6455,
      "Ġhouses": 6456,
      "Ġmachines": 6457,
      "Ġfacing": 6458,
      "ĠMic": 6459,
      "Ġassessment": 6460,
      "Ġincl": 6461,
      "Ġdelicious": 6462,
      "Ġcommittee": 6463,
      "Ġowned": 6464,
      "Ġpatterns": 6465,
      "Ġdefined": 6466,
      "ĠMiddle": 6467,
      "ugh": 6468,
      "Spe": 6469,
      "About": 6470,
      "vy": 6471,
      "elly": 6472,
      "Ġworst": 6473,
      "ĠOR": 6474,
      "ĠChildren": 6475,
      "Ġregulations": 6476,
      "Ġbasket": 6477,
      "Ġ<": 6478,
      "ensity": 6479,
      "ĠLog": 6480,
      "SC": 6481,
      "Ġexpectations": 6482,
      "Ġwheel": 6483,
      "Ġretire": 6484,
      "Ġsyn": 6485,
      "Ġplug": 6486,
      "forcement": 6487,
      "ĠEnd": 6488,
      "liance": 6489,
      "Ġwalked": 6490,
      "Ġreform": 6491,
      "Ġindeed": 6492,
      "sm": 6493,
      "uting": 6494,
      "Ġbear": 6495,
      "Ġreturns": 6496,
      "aturally": 6497,
      "Many": 6498,
      "Ġ195": 6499,
      "ployment": 6500,
      "Ġathlet": 6501,
      "Ġupcoming": 6502,
      "Ġhurt": 6503,
      "Ġcounsel": 6504,
      "Ġdelight": 6505,
      "Dr": 6506,
      "ĠYoung": 6507,
      "43": 6508,
      "Ġfacts": 6509,
      "ĠParis": 6510,
      "Ġsurf": 6511,
      "Ġstim": 6512,
      "ĠSign": 6513,
      "ATION": 6514,
      "Ġriver": 6515,
      "Ġincreases": 6516,
      "Ġtrig": 6517,
      "Ġimpossible": 6518,
      "ĠRest": 6519,
      "ĠIraq": 6520,
      "09": 6521,
      "Ġtack": 6522,
      "ĠCost": 6523,
      "Ġcandidate": 6524,
      "Ġcock": 6525,
      "Ġslot": 6526,
      "Ġjack": 6527,
      "Ġearned": 6528,
      "Ġille": 6529,
      "Ġclimb": 6530,
      "41": 6531,
      "ĠForm": 6532,
      "Ġvillage": 6533,
      "Ġdepth": 6534,
      "ĠHand": 6535,
      "pes": 6536,
      "Ġpublish": 6537,
      "Ġkne": 6538,
      "Ġconclus": 6539,
      "ĠSpring": 6540,
      "ĠLt": 6541,
      "Ġpil": 6542,
      "Ġformed": 6543,
      "Ġleague": 6544,
      "Ġmillions": 6545,
      "iner": 6546,
      "Ġspiritual": 6547,
      "Ġcapable": 6548,
      "ĠLibrary": 6549,
      "Ġdiverse": 6550,
      "ĠDu": 6551,
      "ĠAcademy": 6552,
      "Ġscheduled": 6553,
      "Then": 6554,
      "Ġnative": 6555,
      "Ġtiss": 6556,
      "Ind": 6557,
      "ĠBrand": 6558,
      "Ġskill": 6559,
      "Ġbirthday": 6560,
      "anger": 6561,
      "Ġresolution": 6562,
      "ĠAccess": 6563,
      "!!!": 6564,
      "ĠArab": 6565,
      "Ġreward": 6566,
      "ĠIran": 6567,
      "va": 6568,
      "oty": 6569,
      "Ġongoing": 6570,
      "lymp": 6571,
      "Ġauthorities": 6572,
      "Ġcrucial": 6573,
      "Ġimprovement": 6574,
      "Ġvul": 6575,
      "Ġunable": 6576,
      "Ġregistration": 6577,
      "agon": 6578,
      "Ġnegoti": 6579,
      "ĠSoft": 6580,
      "Ġdifferences": 6581,
      "ĠInte": 6582,
      "Ġbanks": 6583,
      "ĠFair": 6584,
      "Ġicon": 6585,
      "Ġexternal": 6586,
      "Over": 6587,
      "Ġslowly": 6588,
      "ospit": 6589,
      "Ġdelay": 6590,
      "06": 6591,
      "Ġloans": 6592,
      "ĠJon": 6593,
      "EE": 6594,
      "rency": 6595,
      "Ġrow": 6596,
      "Ġrealized": 6597,
      "Ġadm": 6598,
      "elf": 6599,
      "Ġinvent": 6600,
      "rick": 6601,
      "Ġvital": 6602,
      "Ġyounger": 6603,
      "Other": 6604,
      "ĠFollow": 6605,
      "ĠRichard": 6606,
      "ĠPack": 6607,
      "ĠEqu": 6608,
      "astern": 6609,
      "Ġloves": 6610,
      "ĠControl": 6611,
      "Ġsusp": 6612,
      "Ġspoke": 6613,
      "Ġheight": 6614,
      "utional": 6615,
      "Mar": 6616,
      "alse": 6617,
      "Ġsuccessfully": 6618,
      "Ġrein": 6619,
      "ache": 6620,
      "Ġvast": 6621,
      "oman": 6622,
      "Ġbodies": 6623,
      "ĠLive": 6624,
      "Ġdiscussed": 6625,
      "Ġmusical": 6626,
      "Ð¾": 6627,
      "Ġpulled": 6628,
      "Sc": 6629,
      "ingu": 6630,
      "Pe": 6631,
      "ĠAri": 6632,
      "ĠItalian": 6633,
      "Ġphase": 6634,
      "ĠMP": 6635,
      "owing": 6636,
      "ĠPub": 6637,
      "Ġfigures": 6638,
      "ĠDownload": 6639,
      "Ġflowers": 6640,
      "Ġsmile": 6641,
      "Ġprove": 6642,
      "otal": 6643,
      "Ġconsistent": 6644,
      "ether": 6645,
      "ĠCreat": 6646,
      "ĠAR": 6647,
      "Ġdescription": 6648,
      "Ġchapter": 6649,
      "Ġpossibility": 6650,
      "Ġfoundation": 6651,
      "pat": 6652,
      "ĠTherefore": 6653,
      "ĠJun": 6654,
      "Click": 6655,
      "ĠBible": 6656,
      "bi": 6657,
      "Ġrelief": 6658,
      "Ġconfirmed": 6659,
      "Ġreporting": 6660,
      "Ġfirstname": 6661,
      "Ġserves": 6662,
      "TC": 6663,
      "ĠTour": 6664,
      "Ġenthus": 6665,
      "Ġimpressive": 6666,
      "ĠGall": 6667,
      "Ġsight": 6668,
      "Ġbeer": 6669,
      "07": 6670,
      "ĠKh": 6671,
      "Mr": 6672,
      "ĠWalk": 6673,
      "ras": 6674,
      "ĠContact": 6675,
      "Ġauthors": 6676,
      "Ðµ": 6677,
      "ĠiP": 6678,
      "ban": 6679,
      "Ġtaxes": 6680,
      "long": 6681,
      "Are": 6682,
      "ĠWilliams": 6683,
      "VD": 6684,
      "Man": 6685,
      "Ġinnovation": 6686,
      "ĠPage": 6687,
      "Ġast": 6688,
      "Ġhook": 6689,
      "ĠOpt": 6690,
      "ĠGirl": 6691,
      "Ġcooper": 6692,
      "lights": 6693,
      "Ġinjuries": 6694,
      "ĠFestival": 6695,
      "Ġ48": 6696,
      "Ġexclusive": 6697,
      "ĠThrough": 6698,
      "Ġdebate": 6699,
      "Ġmagazine": 6700,
      "Ġdiam": 6701,
      "away": 6702,
      "Ġpartnership": 6703,
      "AY": 6704,
      "Ġsubmit": 6705,
      "Ġprepar": 6706,
      "Oh": 6707,
      "ixture": 6708,
      "agues": 6709,
      "Ġfairly": 6710,
      "ta": 6711,
      "Â°": 6712,
      "Ġsou": 6713,
      "she": 6714,
      "Ġmixed": 6715,
      "Ġedition": 6716,
      "Ġcrazy": 6717,
      "ĠSP": 6718,
      "EST": 6719,
      "ĠSports": 6720,
      "rible": 6721,
      "Ġmountain": 6722,
      "ailability": 6723,
      "ĠCode": 6724,
      "Ġnom": 6725,
      "Ġdecade": 6726,
      "earing": 6727,
      "nic": 6728,
      "ampionship": 6729,
      "Ġsolar": 6730,
      "Ġ75": 6731,
      "Ġfeelings": 6732,
      "Ġnetworks": 6733,
      "ĠGeorg": 6734,
      "Ġliquid": 6735,
      "REE": 6736,
      "ĠSaf": 6737,
      "ĠFOR": 6738,
      "ĠDef": 6739,
      "Ġconvenient": 6740,
      "ĠDoes": 6741,
      "ĠTrust": 6742,
      "isk": 6743,
      "Ġtransition": 6744,
      "ĠSon": 6745,
      "Ġbowl": 6746,
      "rid": 6747,
      "ĠEU": 6748,
      "Ġrecognize": 6749,
      "elcome": 6750,
      "Ġsauce": 6751,
      "Ġseriously": 6752,
      "law": 6753,
      "Ġsurprised": 6754,
      "eding": 6755,
      "Ġpod": 6756,
      "Ġagents": 6757,
      "ĠVictor": 6758,
      "ĠSupp": 6759,
      "Ġcorrespond": 6760,
      "ĠIre": 6761,
      "Ġplanet": 6762,
      "Ġincident": 6763,
      "ĠAD": 6764,
      "Ġtwe": 6765,
      "lete": 6766,
      "ĠContin": 6767,
      "Ġexposure": 6768,
      "Ġadds": 6769,
      "Ġyellow": 6770,
      "yers": 6771,
      "Ġinterior": 6772,
      "Ġid": 6773,
      "ansas": 6774,
      "199": 6775,
      "ĠOhio": 6776,
      "Ġconver": 6777,
      "Ġlicens": 6778,
      "oral": 6779,
      "Also": 6780,
      "ĠWatch": 6781,
      "Ġoperate": 6782,
      "Ġscholars": 6783,
      "Ġsuc": 6784,
      "Ġlistening": 6785,
      "ayer": 6786,
      "ĠKen": 6787,
      "Ġtiny": 6788,
      "Ġbreath": 6789,
      "Ġdates": 6790,
      "ĠDigital": 6791,
      "ints": 6792,
      "isters": 6793,
      "Ġcontest": 6794,
      "Ġultimately": 6795,
      "Ġpolitics": 6796,
      "ĠHospital": 6797,
      "mar": 6798,
      "Ġtur": 6799,
      "Ġbes": 6800,
      "Ġancient": 6801,
      "Ġlifestyle": 6802,
      "ml": 6803,
      "Ġplatforms": 6804,
      "Ġoriginally": 6805,
      "Ġmuscle": 6806,
      "Ġshift": 6807,
      "stone": 6808,
      "ĠBal": 6809,
      "Ġstatements": 6810,
      "Sp": 6811,
      "greg": 6812,
      "aning": 6813,
      "ĠMid": 6814,
      "Ġhate": 6815,
      "Ġempt": 6816,
      "Ġaccessible": 6817,
      "Ġticket": 6818,
      "ĠDan": 6819,
      "Ġyards": 6820,
      "Ġstretch": 6821,
      "uction": 6822,
      "Ġdropped": 6823,
      "ĠSenate": 6824,
      "Ġclosely": 6825,
      "Ġconfident": 6826,
      "Ġpharm": 6827,
      "Ġages": 6828,
      "Ġarts": 6829,
      "Ġthorough": 6830,
      "Ġsilver": 6831,
      "ĠSteve": 6832,
      "Ġsky": 6833,
      "Ġlegs": 6834,
      "ĠRight": 6835,
      "ĠColumb": 6836,
      "ĠCre": 6837,
      "ournament": 6838,
      "04": 6839,
      "Ġthin": 6840,
      "uine": 6841,
      "ĠJackson": 6842,
      "Although": 6843,
      "Ġtested": 6844,
      "Ġfunny": 6845,
      "Ġinformed": 6846,
      "aper": 6847,
      "02": 6848,
      "Ġeveryday": 6849,
      "ĠEp": 6850,
      "ppers": 6851,
      "ĠFrancisco": 6852,
      "ĠAC": 6853,
      "Ġlikes": 6854,
      "ĠLook": 6855,
      "Ġauthent": 6856,
      "Ġconflict": 6857,
      "ĠJewish": 6858,
      "Ġwet": 6859,
      "Ġtomorrow": 6860,
      "Of": 6861,
      "Ġentreprene": 6862,
      "Ġappointment": 6863,
      "PC": 6864,
      "ĠCross": 6865,
      "Ġtechnique": 6866,
      "alle": 6867,
      "Ġnearby": 6868,
      "ĠPrice": 6869,
      "ĠMichigan": 6870,
      "ĠFar": 6871,
      "Ġfacilit": 6872,
      "Ġrail": 6873,
      "entle": 6874,
      "uls": 6875,
      "Ġdealing": 6876,
      "Ġspaces": 6877,
      "ambling": 6878,
      "inem": 6879,
      "Ġlad": 6880,
      "Ġwithd": 6881,
      "ubs": 6882,
      "ERS": 6883,
      "Ġsuggests": 6884,
      "Ġpainting": 6885,
      "ĠNext": 6886,
      "cons": 6887,
      "Ġbare": 6888,
      "ĠOlymp": 6889,
      "03": 6890,
      "ĠGuide": 6891,
      "Ġadventure": 6892,
      "Ġobtained": 6893,
      "iverse": 6894,
      "Ġnormally": 6895,
      "ĠPlace": 6896,
      "from": 6897,
      "ller": 6898,
      "stream": 6899,
      "Ġproof": 6900,
      "berry": 6901,
      "ĠOil": 6902,
      "ĠLittle": 6903,
      "ĠPrem": 6904,
      "Ġauto": 6905,
      "Ġguidance": 6906,
      "Ġhall": 6907,
      "UL": 6908,
      "ĠSpanish": 6909,
      "Ġtrained": 6910,
      "uling": 6911,
      "Ġscored": 6912,
      "Ġfiled": 6913,
      "ĠTit": 6914,
      "ĠMuslim": 6915,
      "Ġease": 6916,
      "Ġsufficient": 6917,
      "86": 6918,
      "ogen": 6919,
      "Ġprivacy": 6920,
      "Ġpersonally": 6921,
      "ographic": 6922,
      "Ġanticip": 6923,
      "ĠColl": 6924,
      "Ã¡": 6925,
      "Ġimmediate": 6926,
      "Ġresistance": 6927,
      "ĠHard": 6928,
      "Ġentr": 6929,
      "Ġattrib": 6930,
      "bing": 6931,
      "tle": 6932,
      "Ġsignal": 6933,
      "Ġfeaturing": 6934,
      "Ġliked": 6935,
      "Ġapartment": 6936,
      "Ġelev": 6937,
      "Ġdining": 6938,
      "Ġdownt": 6939,
      "rect": 6940,
      "gypt": 6941,
      "Ġsoil": 6942,
      "Ġcollaboration": 6943,
      "Ed": 6944,
      "Ġobjects": 6945,
      "ĠVan": 6946,
      "Ġmonitoring": 6947,
      "Ġmand": 6948,
      "Ġbathroom": 6949,
      "rition": 6950,
      "ĠSpirit": 6951,
      "grad": 6952,
      "Ġordered": 6953,
      "Ġletters": 6954,
      "Ġinstruct": 6955,
      "Ġdescribe": 6956,
      "ĠNight": 6957,
      "etime": 6958,
      "Ġexecut": 6959,
      "Ġimproving": 6960,
      "Ġcake": 6961,
      "Ġsizes": 6962,
      "itage": 6963,
      "Ġpapers": 6964,
      "Ġillness": 6965,
      "Ġtalked": 6966,
      "Ġhang": 6967,
      "Ġguitar": 6968,
      "Ġsucceed": 6969,
      "Ġ2022": 6970,
      "Ġpassing": 6971,
      "ĠChair": 6972,
      "Ġbottle": 6973,
      "yard": 6974,
      "ĠTru": 6975,
      "Ġgolf": 6976,
      "ĠMS": 6977,
      "Ġbasically": 6978,
      "ĠCoast": 6979,
      "----": 6980,
      "Ġgraduate": 6981,
      "Ġsupplies": 6982,
      "ĠUsing": 6983,
      "resents": 6984,
      "ĠCert": 6985,
      "Ġlegislation": 6986,
      "Ġcreates": 6987,
      "Tube": 6988,
      "born": 6989,
      "endar": 6990,
      "Ġbelieves": 6991,
      "umes": 6992,
      "ĠPass": 6993,
      "nam": 6994,
      "Ġsustainable": 6995,
      "Ġlandscape": 6996,
      "Ġnarr": 6997,
      "Even": 6998,
      "Ġdeposit": 6999,
      "sue": 7000,
      "Ġphotograp": 7001,
      "celer": 7002,
      "Ġstruggle": 7003,
      "ters": 7004,
      "ĠFurther": 7005,
      "utch": 7006,
      "redit": 7007,
      "ĠKn": 7008,
      "Ġsubsequ": 7009,
      "Ġtall": 7010,
      "DS": 7011,
      "Ġcelebrate": 7012,
      "profit": 7013,
      "Ġevol": 7014,
      "eting": 7015,
      "Ġalleged": 7016,
      "whel": 7017,
      "ĠDC": 7018,
      "ĠCOVID": 7019,
      "pel": 7020,
      "awn": 7021,
      "class": 7022,
      "Ġspin": 7023,
      "folio": 7024,
      "Ġhardware": 7025,
      "Ġdomain": 7026,
      "ĠRights": 7027,
      "Ġintegrated": 7028,
      "lements": 7029,
      "ĠRepublican": 7030,
      "Ġtrends": 7031,
      "Ġmainly": 7032,
      "bles": 7033,
      "Ġdiscipl": 7034,
      "Ġstrategic": 7035,
      "ĠRoyal": 7036,
      "Ġstreets": 7037,
      "ĠPoint": 7038,
      "Ġgrass": 7039,
      "plete": 7040,
      "Ġcontribute": 7041,
      "ĠSup": 7042,
      "Ġprinciples": 7043,
      "ĠVideo": 7044,
      "BI": 7045,
      "Ġmic": 7046,
      "Ġcompr": 7047,
      "Ġblogg": 7048,
      "Ġflood": 7049,
      "Ġintent": 7050,
      "Ġaside": 7051,
      "aints": 7052,
      "Ġpromise": 7053,
      "isms": 7054,
      "Ġresulting": 7055,
      "Ġhumans": 7056,
      "Ġbrowser": 7057,
      "Ġsmell": 7058,
      "ĠMult": 7059,
      "Ġcollected": 7060,
      "Ġmoves": 7061,
      "Ġthread": 7062,
      "Ġengagement": 7063,
      "ĠInstagram": 7064,
      "Ġabsor": 7065,
      "cling": 7066,
      "Ġexpressed": 7067,
      "Ġreferred": 7068,
      "Ġurban": 7069,
      "Ġprecise": 7070,
      "Ġcontemporary": 7071,
      "ĠApplic": 7072,
      "Ġsuffering": 7073,
      "Go": 7074,
      "ĠTri": 7075,
      "ĠHor": 7076,
      "Ġwriters": 7077,
      "made": 7078,
      "ĠCe": 7079,
      "bel": 7080,
      "lder": 7081,
      "ĠGames": 7082,
      "iser": 7083,
      "Ġorigin": 7084,
      "ĠExecutive": 7085,
      "opyright": 7086,
      "ican": 7087,
      "Ġvulner": 7088,
      "Ġconstant": 7089,
      "ih": 7090,
      "Ġlessons": 7091,
      "Ġmoist": 7092,
      "abetes": 7093,
      "AA": 7094,
      "Ġphen": 7095,
      "Ġmuseum": 7096,
      "Ġmonitor": 7097,
      "Ġprospect": 7098,
      "cue": 7099,
      "Ġtrick": 7100,
      "Ġincreasingly": 7101,
      "Ġhabit": 7102,
      "ĠSouthern": 7103,
      "Ġobviously": 7104,
      "worth": 7105,
      "Ġmanaging": 7106,
      "Ġglad": 7107,
      "Ġwest": 7108,
      "Ġtech": 7109,
      "Ġpursu": 7110,
      "Ġatmosphere": 7111,
      "76": 7112,
      "rich": 7113,
      "ĠAS": 7114,
      "zil": 7115,
      "coin": 7116,
      "Ġbedroom": 7117,
      "Ġintelligence": 7118,
      "asters": 7119,
      "Ġphilosoph": 7120,
      "Ġheav": 7121,
      "ashed": 7122,
      "ĠKey": 7123,
      "ellect": 7124,
      "Ġguidelines": 7125,
      "Ġvend": 7126,
      "orable": 7127,
      "Ġlinked": 7128,
      "Ġwarn": 7129,
      "atoes": 7130,
      "View": 7131,
      "ĠScot": 7132,
      "secut": 7133,
      "Ġtab": 7134,
      "Ġweekly": 7135,
      "Ġrecording": 7136,
      "Ġhell": 7137,
      "Ġpersons": 7138,
      "Ġrear": 7139,
      "ĠArmy": 7140,
      "Ġnecessarily": 7141,
      "ĠLtd": 7142,
      "Ġpleased": 7143,
      "inte": 7144,
      "raid": 7145,
      "ĠCast": 7146,
      "Ġtut": 7147,
      "idays": 7148,
      "Ġwidely": 7149,
      "ĠUt": 7150,
      "ĠDie": 7151,
      "Ġextract": 7152,
      "HS": 7153,
      "level": 7154,
      "Ġlighting": 7155,
      "Ġargument": 7156,
      "Ġsomewhat": 7157,
      "Ġrose": 7158,
      "Ġduty": 7159,
      "ĠIreland": 7160,
      "Ġnuclear": 7161,
      "onym": 7162,
      "umps": 7163,
      "roduct": 7164,
      "enger": 7165,
      "Ġclar": 7166,
      "aze": 7167,
      "Ġhoping": 7168,
      "Ġrepresents": 7169,
      "ĠBox": 7170,
      "sters": 7171,
      "Ġinstrument": 7172,
      "oned": 7173,
      "Ġmini": 7174,
      "ĠBell": 7175,
      "Ġestimated": 7176,
      "Ġtalks": 7177,
      "ĠPot": 7178,
      "Ġinterface": 7179,
      "stood": 7180,
      "Ã¢": 7181,
      "Ġorganized": 7182,
      "ĠAssist": 7183,
      "ĠCharles": 7184,
      "Ġfilter": 7185,
      "Ġoutstanding": 7186,
      "Ġcable": 7187,
      "Ġpleasure": 7188,
      "ĠCatholic": 7189,
      "Ġreaction": 7190,
      "Ġtag": 7191,
      "Ġerr": 7192,
      "anna": 7193,
      "LY": 7194,
      "ĠInf": 7195,
      "rage": 7196,
      "Ġexec": 7197,
      "ati": 7198,
      "Ġhasn": 7199,
      "asant": 7200,
      "Ġshots": 7201,
      "Where": 7202,
      "Ġsheet": 7203,
      "Ġexplains": 7204,
      "ĠCra": 7205,
      "Ġdump": 7206,
      "Ġvot": 7207,
      "Ð°": 7208,
      "âĢĻ,": 7209,
      "iana": 7210,
      "lyn": 7211,
      "Ġpra": 7212,
      "Ġhire": 7213,
      "Ġacts": 7214,
      "Ġchoosing": 7215,
      "Ġgender": 7216,
      "Ġborder": 7217,
      "ĠFed": 7218,
      "Ġreplacement": 7219,
      "Ġgenerate": 7220,
      "inter": 7221,
      "FC": 7222,
      "Ġextent": 7223,
      "Ġreader": 7224,
      "Ġdiscl": 7225,
      "ificate": 7226,
      "aylor": 7227,
      "MP": 7228,
      "Ġsomewhere": 7229,
      "ĠMach": 7230,
      "ĠHim": 7231,
      "Int": 7232,
      "ĠJustice": 7233,
      "Ġpill": 7234,
      "Ġexperiment": 7235,
      "Ġreputation": 7236,
      "ĠAndrew": 7237,
      "Ġhits": 7238,
      "ĠItaly": 7239,
      "Ġsuspect": 7240,
      "ĠHon": 7241,
      "Ġzone": 7242,
      "Ġchose": 7243,
      "Ġclothing": 7244,
      "ĠSn": 7245,
      "then": 7246,
      "Ġgear": 7247,
      "ML": 7248,
      "Ġexceed": 7249,
      "holders": 7250,
      "ouch": 7251,
      "Ġindex": 7252,
      "Ġcapture": 7253,
      "Ġmembership": 7254,
      "ilst": 7255,
      "Bu": 7256,
      "Ġfasc": 7257,
      "Ġproven": 7258,
      "Ġshel": 7259,
      "Ġpounds": 7260,
      "ĠSher": 7261,
      "front": 7262,
      "Ġachieved": 7263,
      "weet": 7264,
      "Ġapproval": 7265,
      "ba": 7266,
      "Ġdirected": 7267,
      "Ġattended": 7268,
      "ĠHolly": 7269,
      "ĠEnvironment": 7270,
      "%.": 7271,
      "asts": 7272,
      "During": 7273,
      "Ġroles": 7274,
      "Ġheads": 7275,
      "ĠFour": 7276,
      "Ġsearching": 7277,
      "Ġprimarily": 7278,
      "ifies": 7279,
      "Ġfinds": 7280,
      "Ġmanual": 7281,
      "ennis": 7282,
      "lessly": 7283,
      "zing": 7284,
      "Ġlie": 7285,
      "Ġinvolves": 7286,
      "otton": 7287,
      "ĠSite": 7288,
      "Ġfavourite": 7289,
      "ĠBon": 7290,
      "Ġdomin": 7291,
      "plate": 7292,
      "Ġimplementation": 7293,
      "cked": 7294,
      "Ġengaged": 7295,
      "Ġnarrow": 7296,
      "Ġattached": 7297,
      "Ġsurprising": 7298,
      "Ġtank": 7299,
      "Ġads": 7300,
      "Ġcommunications": 7301,
      "Ġpercentage": 7302,
      "Ġforever": 7303,
      "athy": 7304,
      "ĠSearch": 7305,
      "inton": 7306,
      "Ġinterpret": 7307,
      "ura": 7308,
      "Ġstood": 7309,
      "ĠSometimes": 7310,
      "Ġtransportation": 7311,
      "ĠHelp": 7312,
      "Ġpipe": 7313,
      "Ġgifts": 7314,
      "Ġperforming": 7315,
      "Ġflour": 7316,
      "ults": 7317,
      "Ġcouncil": 7318,
      "Ġfishing": 7319,
      "ystem": 7320,
      "ĠYet": 7321,
      "Ġ1999": 7322,
      "Thank": 7323,
      "Ġnoise": 7324,
      "teen": 7325,
      "ĠLow": 7326,
      "Ġconscious": 7327,
      "Ġbat": 7328,
      "case": 7329,
      "urse": 7330,
      "Ġfitness": 7331,
      "Ġdrinking": 7332,
      "quir": 7333,
      "ĠThus": 7334,
      "Ġqualified": 7335,
      "Ġvacation": 7336,
      "Today": 7337,
      "Ġdip": 7338,
      "uster": 7339,
      "ĠAff": 7340,
      "Ġhosting": 7341,
      "Ġreligion": 7342,
      "Thanks": 7343,
      "ĠTerm": 7344,
      "lls": 7345,
      "adow": 7346,
      "ĠEgypt": 7347,
      "Ġrental": 7348,
      "ĠLin": 7349,
      "Ġanxiety": 7350,
      "Ġcausing": 7351,
      "ĠSanta": 7352,
      "Ġanyway": 7353,
      "Ġinspiration": 7354,
      "59": 7355,
      "lv": 7356,
      "ĠStat": 7357,
      "bar": 7358,
      "onna": 7359,
      "Rep": 7360,
      "Ġinvited": 7361,
      "Ġsavings": 7362,
      "ĠFriend": 7363,
      "Ġgaming": 7364,
      "ĠAccount": 7365,
      "300": 7366,
      "Ġgay": 7367,
      "Ġgenuine": 7368,
      "79": 7369,
      "ĠCa": 7370,
      "itution": 7371,
      "amber": 7372,
      "Ġclaimed": 7373,
      "ĠCook": 7374,
      "AB": 7375,
      "Ġfalse": 7376,
      "Ġdestination": 7377,
      "cia": 7378,
      "Ġpotentially": 7379,
      "alog": 7380,
      "Ġsaved": 7381,
      "Ġhidden": 7382,
      "Ġmagic": 7383,
      "Ġexpenses": 7384,
      "Ġairport": 7385,
      "PM": 7386,
      "TR": 7387,
      "Ġstyles": 7388,
      "Ġfaculty": 7389,
      "Ġfirms": 7390,
      "live": 7391,
      "Ġoverwhel": 7392,
      "56": 7393,
      "ogether": 7394,
      "Ġrepeated": 7395,
      "Ġwatched": 7396,
      "Ġvi": 7397,
      "ĠMarketing": 7398,
      "iece": 7399,
      "Ġreduction": 7400,
      "Ġentit": 7401,
      "ĠEs": 7402,
      "iot": 7403,
      "Ġpitch": 7404,
      "Ġweapons": 7405,
      "zer": 7406,
      "ĠDivision": 7407,
      "ument": 7408,
      "ĠMov": 7409,
      "uration": 7410,
      "Ġrecommendations": 7411,
      "Ġ38": 7412,
      "Ġprogramme": 7413,
      "quality": 7414,
      "Ġamend": 7415,
      "des": 7416,
      "Ġfaces": 7417,
      "Ġacting": 7418,
      "Ġpossess": 7419,
      "Ġversions": 7420,
      "arters": 7421,
      "ucky": 7422,
      "ĠQuest": 7423,
      "tocol": 7424,
      "ĠDate": 7425,
      "Ġconserv": 7426,
      "ĠBush": 7427,
      "Ġchances": 7428,
      "Ġstrange": 7429,
      "ĠColorado": 7430,
      "Ġtip": 7431,
      "Ġopposite": 7432,
      "ĠPhys": 7433,
      "inent": 7434,
      "Ġgod": 7435,
      "ĠPak": 7436,
      "ĠFinancial": 7437,
      "Ġamounts": 7438,
      "Ġreducing": 7439,
      "Per": 7440,
      "cover": 7441,
      "Ġsending": 7442,
      "Ġflag": 7443,
      "Ġcomponent": 7444,
      "neys": 7445,
      "Ġdoctors": 7446,
      "Ġvisited": 7447,
      "Book": 7448,
      "âĤ¬": 7449,
      "raction": 7450,
      "aping": 7451,
      "Ġdepends": 7452,
      "ĠRose": 7453,
      "ampion": 7454,
      "Ġrating": 7455,
      "Ġaggress": 7456,
      "Ġjun": 7457,
      "ĠYouTube": 7458,
      "Ġluxury": 7459,
      "erate": 7460,
      "Ġ150": 7461,
      "ĠFun": 7462,
      "ione": 7463,
      "Ġtradition": 7464,
      "Ġfounded": 7465,
      "Ġhat": 7466,
      "Ġpermanent": 7467,
      "ĠCR": 7468,
      "lled": 7469,
      "ĠNote": 7470,
      "Ġstorm": 7471,
      "Ġflexible": 7472,
      "Ġstake": 7473,
      "Ġoven": 7474,
      "amental": 7475,
      "ĠSecretary": 7476,
      "Ġ?": 7477,
      "Ġdesigner": 7478,
      "ĠNon": 7479,
      "Ġincredibly": 7480,
      "ĠCO": 7481,
      "ĠAgain": 7482,
      "iano": 7483,
      "Ġbab": 7484,
      "obs": 7485,
      "Ġinner": 7486,
      "âĢ¦.": 7487,
      "Ġreplaced": 7488,
      "Ġsupplement": 7489,
      "ĠAsh": 7490,
      "Ġ33": 7491,
      "friendly": 7492,
      "rated": 7493,
      "Ġeligible": 7494,
      "Pre": 7495,
      "Ġpowder": 7496,
      "Ġtransp": 7497,
      "Ġdrawing": 7498,
      "Ġlucky": 7499,
      "Ġagric": 7500,
      "htt": 7501,
      "ĠOk": 7502,
      "TER": 7503,
      "Ġje": 7504,
      "Ġbroadcast": 7505,
      "Ġcos": 7506,
      "Ġrig": 7507,
      "rently": 7508,
      "ĠPen": 7509,
      "Ġdevelopers": 7510,
      "Ġknock": 7511,
      "ĠJersey": 7512,
      "Ġaccomplish": 7513,
      "Ġformal": 7514,
      "Ġdesired": 7515,
      "Ġstuck": 7516,
      "ĠKim": 7517,
      "Free": 7518,
      "ran": 7519,
      "ĠHa": 7520,
      "Ġplot": 7521,
      "Ġlargely": 7522,
      "ĠThree": 7523,
      "Ġdivid": 7524,
      "Ġafraid": 7525,
      "Ġyield": 7526,
      "Ġcategories": 7527,
      "Ġconsideration": 7528,
      "Ġdust": 7529,
      "Ġsoph": 7530,
      "Ġtwenty": 7531,
      "ĠPacific": 7532,
      "Ġsuffe": 7533,
      "Ġmurder": 7534,
      "Ġmeals": 7535,
      "Ġhistoric": 7536,
      "Ġfinance": 7537,
      "Ġsolve": 7538,
      "Ġpin": 7539,
      "Ġflavor": 7540,
      "vi": 7541,
      "Who": 7542,
      "Ġfing": 7543,
      "Ġpace": 7544,
      "Ġtracks": 7545,
      "Ġseed": 7546,
      "Pr": 7547,
      "ĠUlt": 7548,
      "Ġphr": 7549,
      "Ġhole": 7550,
      "cific": 7551,
      "racy": 7552,
      "ounter": 7553,
      "inking": 7554,
      "making": 7555,
      "ĠDar": 7556,
      "cipal": 7557,
      "Ġshouldn": 7558,
      "Ġunw": 7559,
      "Ġsoci": 7560,
      "ĠSky": 7561,
      "izz": 7562,
      "Ġmortgage": 7563,
      "Ġvictims": 7564,
      "ventional": 7565,
      "ĠPolicy": 7566,
      "Ġnaturally": 7567,
      "Ġevil": 7568,
      "bsite": 7569,
      "ĠDid": 7570,
      "Ġterrit": 7571,
      "ĠðŁ": 7572,
      "Ġsubmitted": 7573,
      "Ġeggs": 7574,
      "Ġalive": 7575,
      "Ġbroke": 7576,
      "Ġremained": 7577,
      "ĠWrit": 7578,
      "ĠMrs": 7579,
      "ĠEll": 7580,
      "Ġtonight": 7581,
      "Ġoccurred": 7582,
      "liament": 7583,
      "ĠLeg": 7584,
      "Ġhospit": 7585,
      "Ġdreams": 7586,
      "olit": 7587,
      "Ġweren": 7588,
      "ĠConf": 7589,
      "ologist": 7590,
      "Ġcapabilities": 7591,
      "ĠGeorgia": 7592,
      "Ġhopes": 7593,
      "Ġeast": 7594,
      "Ġbrill": 7595,
      "pir": 7596,
      "acle": 7597,
      "Ġdynamic": 7598,
      "Ġlimits": 7599,
      "Ġtreatments": 7600,
      "oured": 7601,
      "stein": 7602,
      "Ġ400": 7603,
      "Ġsuddenly": 7604,
      "Ġera": 7605,
      "Ġwra": 7606,
      "Ġdefinition": 7607,
      "Ġbridge": 7608,
      "Ġneither": 7609,
      "etry": 7610,
      "dy": 7611,
      "ĠProfessor": 7612,
      "Ġcontinuing": 7613,
      "ĠPract": 7614,
      "ikes": 7615,
      "Col": 7616,
      "ĠSH": 7617,
      "ĠDisc": 7618,
      "ĠFre": 7619,
      "Ġproposal": 7620,
      "arks": 7621,
      "Ġobserved": 7622,
      "essel": 7623,
      "star": 7624,
      "Ġmanufacturer": 7625,
      "Ġwhenever": 7626,
      "Ġultimate": 7627,
      "Ġinteract": 7628,
      "Ġ1990": 7629,
      "Ġpit": 7630,
      "ĠZeal": 7631,
      "Ġoffices": 7632,
      "page": 7633,
      "ĠRyan": 7634,
      "89": 7635,
      "ĠDaily": 7636,
      "ĠSystems": 7637,
      "ĠKar": 7638,
      "Ġrevolution": 7639,
      "ressed": 7640,
      "ĠExpl": 7641,
      "anes": 7642,
      "Ġempty": 7643,
      "Ġflash": 7644,
      "ĠBlo": 7645,
      "Ġlawyer": 7646,
      "Ġfindings": 7647,
      "Ġattractive": 7648,
      "Ġdivision": 7649,
      "CD": 7650,
      "izer": 7651,
      "Ġalongside": 7652,
      "Ġillegal": 7653,
      "ĠNever": 7654,
      "Ġbact": 7655,
      "Ġbags": 7656,
      "Ġsharp": 7657,
      "ĠHoly": 7658,
      "ĠVill": 7659,
      "].": 7660,
      "Ġjew": 7661,
      "Ġshower": 7662,
      "Ġreject": 7663,
      "adium": 7664,
      "leep": 7665,
      "Ġcontrolled": 7666,
      "igure": 7667,
      "Ġexception": 7668,
      "Ġtum": 7669,
      "John": 7670,
      "Ġlapt": 7671,
      "Ġfestival": 7672,
      "ghan": 7673,
      "Ġexistence": 7674,
      "Ġscheme": 7675,
      "Ġrecognition": 7676,
      "Ġ)": 7677,
      "Ġmemories": 7678,
      "Ġprofessor": 7679,
      "Ġdiseases": 7680,
      "ĠFather": 7681,
      "________": 7682,
      "Ġcomparison": 7683,
      "Ġforum": 7684,
      "nda": 7685,
      "Ġsensitive": 7686,
      "ho": 7687,
      "anned": 7688,
      "ureau": 7689,
      "ĠJac": 7690,
      "Bec": 7691,
      "Ġdefault": 7692,
      "TV": 7693,
      "Ġprotest": 7694,
      "Ġstunning": 7695,
      "Ġmixture": 7696,
      "ava": 7697,
      "Ġscientists": 7698,
      "Ġpriority": 7699,
      "Ġliterally": 7700,
      "EP": 7701,
      "Ġcontrols": 7702,
      "Ġindustries": 7703,
      "800": 7704,
      "Ġarrive": 7705,
      "ĠThough": 7706,
      "Ġconsumption": 7707,
      "foot": 7708,
      "Ġapparently": 7709,
      "pack": 7710,
      "Ġproducing": 7711,
      "onto": 7712,
      "ĠDaniel": 7713,
      "iger": 7714,
      "ATE": 7715,
      "Ġrecon": 7716,
      "imize": 7717,
      "Ġincorpor": 7718,
      "Ġsplit": 7719,
      "ĠAsian": 7720,
      "Ġpreferred": 7721,
      "Ġlies": 7722,
      "ĠDisney": 7723,
      "ĠHarr": 7724,
      "tense": 7725,
      "Ġpermission": 7726,
      "Press": 7727,
      "Ġcareful": 7728,
      "ĠHeart": 7729,
      "Ġwash": 7730,
      "ĠOS": 7731,
      "Ġconnections": 7732,
      "ĠStore": 7733,
      "letter": 7734,
      "Ġconcrete": 7735,
      "Ġparam": 7736,
      "lers": 7737,
      "issions": 7738,
      "Ġcommonly": 7739,
      "Ġregions": 7740,
      "ĠSU": 7741,
      "Ġ55": 7742,
      "EA": 7743,
      "ĠLearn": 7744,
      "Ġawards": 7745,
      "ĠZealand": 7746,
      "ĠArea": 7747,
      "Ġunus": 7748,
      "ĠRay": 7749,
      "cular": 7750,
      "ppy": 7751,
      "ounded": 7752,
      "Ġregardless": 7753,
      "ĠDub": 7754,
      "ĠTurn": 7755,
      "Ġoutcomes": 7756,
      "Ġrecy": 7757,
      "phy": 7758,
      "riers": 7759,
      "ĠRam": 7760,
      "Ġmood": 7761,
      "amps": 7762,
      "Ġstrike": 7763,
      "anny": 7764,
      "Ġportfolio": 7765,
      "Ġ37": 7766,
      "Ġpand": 7767,
      "Ġhealing": 7768,
      "Ġpresents": 7769,
      "Ġleather": 7770,
      "Ġquote": 7771,
      "Ġdriven": 7772,
      "Ġraw": 7773,
      "Ġeverywhere": 7774,
      "Ġintroduction": 7775,
      "ĠClin": 7776,
      "ĠWhich": 7777,
      "Ġresidential": 7778,
      "RS": 7779,
      "Ġstronger": 7780,
      "stery": 7781,
      "ĠSupreme": 7782,
      "iversary": 7783,
      "Ġmarked": 7784,
      "Ġ;": 7785,
      "Ġ1998": 7786,
      "haust": 7787,
      "ĠCorporation": 7788,
      "Ġenterprise": 7789,
      "Ġoppon": 7790,
      "ĠHope": 7791,
      "Ġsaving": 7792,
      "ĠFarm": 7793,
      "ĠPo": 7794,
      "words": 7795,
      "bits": 7796,
      "ĠSea": 7797,
      "ĠSpace": 7798,
      "Ġoutcome": 7799,
      "Reg": 7800,
      "ĠPriv": 7801,
      "anted": 7802,
      "ĠWorks": 7803,
      "Ġstead": 7804,
      "ĠPerform": 7805,
      "including": 7806,
      "inson": 7807,
      "Ġdebut": 7808,
      "Ġ34": 7809,
      "Ġavailability": 7810,
      "Ġarchitecture": 7811,
      "Ġcommunicate": 7812,
      "etary": 7813,
      "Ġcompliance": 7814,
      "ĠStudents": 7815,
      "Ġnic": 7816,
      "uous": 7817,
      "Ġnewly": 7818,
      "Ġfalling": 7819,
      "uing": 7820,
      "ĠJoseph": 7821,
      "aine": 7822,
      "athan": 7823,
      "being": 7824,
      "Ġpublication": 7825,
      "Ġchannels": 7826,
      "adel": 7827,
      "Ġmile": 7828,
      "Ġcuts": 7829,
      "ĠFord": 7830,
      "ĠEss": 7831,
      "Ġpreparation": 7832,
      "Ġstructures": 7833,
      "ĠMedicine": 7834,
      "ĠCond": 7835,
      "bell": 7836,
      "ĠType": 7837,
      "ĠTax": 7838,
      "uter": 7839,
      "Ġinfection": 7840,
      "zona": 7841,
      "Ġcoal": 7842,
      "Ġexpansion": 7843,
      "rog": 7844,
      "Ġblind": 7845,
      "ĠTraining": 7846,
      "Ġsees": 7847,
      "Ġmanagers": 7848,
      "Ġmerch": 7849,
      "Ġanymore": 7850,
      "umm": 7851,
      "ĠTravel": 7852,
      "Ġ65": 7853,
      "anwhile": 7854,
      "Ġroot": 7855,
      "sell": 7856,
      "Ġrecover": 7857,
      "Ġpersonality": 7858,
      "Ġlau": 7859,
      "Ġcarrying": 7860,
      "ĠBrazil": 7861,
      "xic": 7862,
      "Ġundert": 7863,
      "Ġbreaking": 7864,
      "erts": 7865,
      "Ġcoordin": 7866,
      "64": 7867,
      "Ġinvolving": 7868,
      "iami": 7869,
      "ĠOrder": 7870,
      "Ġrising": 7871,
      "ĠTry": 7872,
      "Ġinsight": 7873,
      "missions": 7874,
      "Ġliterature": 7875,
      "ĠLiber": 7876,
      "Ġeverybody": 7877,
      "Ġwave": 7878,
      "ĠDog": 7879,
      "RI": 7880,
      "Ġfraud": 7881,
      "icted": 7882,
      "Ġmanufacturers": 7883,
      "intage": 7884,
      "ĠRon": 7885,
      "Ġvo": 7886,
      "Ġdad": 7887,
      "Ġshops": 7888,
      "alysis": 7889,
      "ĠMill": 7890,
      "itis": 7891,
      "Ġtone": 7892,
      "Ġharder": 7893,
      "Ġscenes": 7894,
      "Ġexperim": 7895,
      "Ġkm": 7896,
      "Ġneighb": 7897,
      "Ġvirus": 7898,
      "Ġenforcement": 7899,
      "Ġpink": 7900,
      "Ġunderstood": 7901,
      "Ġgentle": 7902,
      "this": 7903,
      "Ġrequests": 7904,
      "Ġunex": 7905,
      "Ġgiant": 7906,
      "ĠSmall": 7907,
      "Ġmatches": 7908,
      "ĠStudies": 7909,
      "Ġcertified": 7910,
      "tes": 7911,
      "ĠStan": 7912,
      "ĠTer": 7913,
      "Ġawarded": 7914,
      "Ġdrawn": 7915,
      "Ġintense": 7916,
      "Have": 7917,
      "acc": 7918,
      "ĠNorthern": 7919,
      "lude": 7920,
      "och": 7921,
      "Ġeleg": 7922,
      "EG": 7923,
      "ĠWH": 7924,
      "Ġstrict": 7925,
      "Ġexposed": 7926,
      "Ġscan": 7927,
      "Ġprinted": 7928,
      "lose": 7929,
      "ĠKent": 7930,
      "Ġreact": 7931,
      "bration": 7932,
      "Ġcolumn": 7933,
      "ESS": 7934,
      "Ġensuring": 7935,
      "Ġalt": 7936,
      "inity": 7937,
      "Ġvent": 7938,
      "Ġexplan": 7939,
      "ĠKenn": 7940,
      "ĠField": 7941,
      "ruption": 7942,
      "Ġdispos": 7943,
      "mal": 7944,
      "ĠFox": 7945,
      "Ġphotography": 7946,
      "ĠRa": 7947,
      "Ġmob": 7948,
      "Ġdecent": 7949,
      "Ġisol": 7950,
      "bury": 7951,
      "roke": 7952,
      "ĠRoom": 7953,
      "Ġtitles": 7954,
      "irts": 7955,
      "iti": 7956,
      "Ġtired": 7957,
      "ceived": 7958,
      "ĠMobile": 7959,
      "izza": 7960,
      "Ġbehalf": 7961,
      "swe": 7962,
      "Ġelectrical": 7963,
      "Ġspokes": 7964,
      "bridge": 7965,
      "ĠOrig": 7966,
      "Ġsynt": 7967,
      "Ġlets": 7968,
      "ĠBuy": 7969,
      "Ġvibr": 7970,
      "sts": 7971,
      "Ġhandling": 7972,
      "Ġjoining": 7973,
      "roduction": 7974,
      "tics": 7975,
      "Posted": 7976,
      "ĠAdministration": 7977,
      "Ġsubjects": 7978,
      "ĠSus": 7979,
      "ĠBall": 7980,
      "Before": 7981,
      "Ġlaid": 7982,
      "Ġintellect": 7983,
      "Fi": 7984,
      "remony": 7985,
      "eling": 7986,
      "MC": 7987,
      "Ġbars": 7988,
      "Ġcute": 7989,
      "Gu": 7990,
      "Ġtor": 7991,
      "ĠSC": 7992,
      "Ġuncom": 7993,
      "iac": 7994,
      "Ġbunch": 7995,
      "American": 7996,
      "Ġconsequences": 7997,
      "iki": 7998,
      "ĠPop": 7999,
      "ĠMA": 8000,
      "Ġzero": 8001,
      "Sm": 8002,
      "Ġupload": 8003,
      "Ġheaded": 8004,
      "Ġforgot": 8005,
      "Ġequival": 8006,
      "ĠHou": 8007,
      "chester": 8008,
      "Ġmm": 8009,
      "Ġtrave": 8010,
      "Ð¸": 8011,
      "Ġcompare": 8012,
      "Ġbench": 8013,
      "Ġconsists": 8014,
      "Ġrecipes": 8015,
      "iking": 8016,
      "Ġborrow": 8017,
      "ĠDVD": 8018,
      "ĠBa": 8019,
      "ĠTable": 8020,
      "Ġru": 8021,
      "Ġlatter": 8022,
      "Ġassume": 8023,
      "Ġfundamental": 8024,
      "Ġfunctional": 8025,
      "Ġending": 8026,
      "Ġbirds": 8027,
      "Ġextension": 8028,
      "Ġaccord": 8029,
      "Check": 8030,
      "Ġpubl": 8031,
      "Ġstaying": 8032,
      "inois": 8033,
      "Ġenables": 8034,
      "Ġvisible": 8035,
      "ĠAvenue": 8036,
      "ĠForce": 8037,
      "Ġ39": 8038,
      "69": 8039,
      "erman": 8040,
      "Ġcrypt": 8041,
      "ĠEnt": 8042,
      "ĠMir": 8043,
      "Ġfaced": 8044,
      "Ġenjoying": 8045,
      "ĠBritain": 8046,
      "Ġfinger": 8047,
      "Ġmarks": 8048,
      "ĠTaylor": 8049,
      "gor": 8050,
      "Ġfru": 8051,
      "Ġrice": 8052,
      "Ġwins": 8053,
      "Ġarrested": 8054,
      "Ġframework": 8055,
      "Ġrelative": 8056,
      "Ġseats": 8057,
      "Ġescape": 8058,
      "isa": 8059,
      "Ġmaintaining": 8060,
      "Ġretirement": 8061,
      "ĠAp": 8062,
      "Ġblocks": 8063,
      "ĠLy": 8064,
      "Ġassociation": 8065,
      "Ġtact": 8066,
      "ĠBuilding": 8067,
      "ja": 8068,
      "Ġloud": 8069,
      "Ġshoulder": 8070,
      "ĠJenn": 8071,
      "Ġcolleagues": 8072,
      "Ġinstant": 8073,
      "icide": 8074,
      "run": 8075,
      "stal": 8076,
      ".;": 8077,
      "ĠShould": 8078,
      "ĠSav": 8079,
      "Ġstable": 8080,
      "Ġgranted": 8081,
      "ila": 8082,
      "Ġencouraged": 8083,
      "ĠLabor": 8084,
      "Ġtissue": 8085,
      "Ġlogo": 8086,
      "Ġcriteria": 8087,
      "uma": 8088,
      "Ġheaven": 8089,
      "arry": 8090,
      "ĠEngineering": 8091,
      "ĠCBD": 8092,
      "Ġspark": 8093,
      "Ġrequirement": 8094,
      "Ġphones": 8095,
      "Ġcomplicated": 8096,
      "Ġwithdraw": 8097,
      "Ġspots": 8098,
      "oken": 8099,
      "Ġthinks": 8100,
      "uties": 8101,
      "Ġobst": 8102,
      "Ġrely": 8103,
      "Med": 8104,
      "aron": 8105,
      "cm": 8106,
      "Ġcookies": 8107,
      "Ġjuice": 8108,
      "Ġmac": 8109,
      "Ġcenters": 8110,
      "Ġacceler": 8111,
      "eras": 8112,
      "Ġseasons": 8113,
      "ĠLocal": 8114,
      "stra": 8115,
      "Ġdemands": 8116,
      "Ġloving": 8117,
      "thew": 8118,
      "ĠPut": 8119,
      "ĠRequ": 8120,
      "uct": 8121,
      "char": 8122,
      "Ġlists": 8123,
      "Ġblank": 8124,
      "ĠUk": 8125,
      "ĠPrin": 8126,
      "Ġdeeply": 8127,
      "Ġcovering": 8128,
      "ĠProm": 8129,
      "ĠLine": 8130,
      "Ġgenerated": 8131,
      "Ġsuperior": 8132,
      "Ġinch": 8133,
      "Ġmerely": 8134,
      "ĠJr": 8135,
      "Ġconcerning": 8136,
      "Ġunion": 8137,
      "orgeous": 8138,
      "ulating": 8139,
      "Ġprogramming": 8140,
      "ĠHenry": 8141,
      "Ġsacr": 8142,
      "Step": 8143,
      "Ġther": 8144,
      "Ġhung": 8145,
      "Ġhyper": 8146,
      "ĠEst": 8147,
      "Jo": 8148,
      "Ġopinions": 8149,
      "Ġcontained": 8150,
      "Ġputs": 8151,
      "ĠRun": 8152,
      "Ġadequ": 8153,
      "Ġreserved": 8154,
      "Ġremoval": 8155,
      "atics": 8156,
      "ĠOp": 8157,
      "owers": 8158,
      ")||": 8159,
      "ĠSummer": 8160,
      "ulum": 8161,
      "claim": 8162,
      "pending": 8163,
      "war": 8164,
      "phones": 8165,
      "Ġboss": 8166,
      "Ġapproaches": 8167,
      "Ġhydro": 8168,
      "ership": 8169,
      "Ġbatt": 8170,
      "Ġbull": 8171,
      "ĠSuch": 8172,
      "Ġsamples": 8173,
      "Ġlady": 8174,
      "ĠQueen": 8175,
      "Ġinjured": 8176,
      "Ġwrites": 8177,
      "ĠBoy": 8178,
      "ĠCru": 8179,
      "ĠIrish": 8180,
      "Ġcharacteristics": 8181,
      "ĠRod": 8182,
      "ĠKingdom": 8183,
      "ĠDrive": 8184,
      "ĠFact": 8185,
      "Like": 8186,
      "icious": 8187,
      "AV": 8188,
      "Ġconvin": 8189,
      "Ġdivor": 8190,
      "Follow": 8191,
      "His": 8192,
      "Ġboxes": 8193,
      "Ġfifth": 8194,
      "Ġsuffered": 8195,
      "ĠSafety": 8196,
      "ĠPDF": 8197,
      "Ġdental": 8198,
      "abeth": 8199,
      "ĠRef": 8200,
      "ĠSEO": 8201,
      "Ġsuggestions": 8202,
      "hire": 8203,
      "print": 8204,
      "Because": 8205,
      "ĠLind": 8206,
      "annel": 8207,
      "Ġgotten": 8208,
      "Note": 8209,
      "ĠMountain": 8210,
      "Ġtransaction": 8211,
      "ĠKat": 8212,
      "Ġevaluation": 8213,
      "fall": 8214,
      "Ġcompensation": 8215,
      "nders": 8216,
      "Ġusage": 8217,
      "ĠHaving": 8218,
      "Ġtub": 8219,
      "ilty": 8220,
      "ĠSilver": 8221,
      "ĠBroad": 8222,
      "Ġpurchasing": 8223,
      "ĠFREE": 8224,
      "GE": 8225,
      "Ġpowers": 8226,
      "Ġinitiative": 8227,
      "Ġsought": 8228,
      "Ġstored": 8229,
      "ĠStill": 8230,
      "ĠInsurance": 8231,
      "ĠProper": 8232,
      "Ġcompat": 8233,
      "Ġkit": 8234,
      "Ġdeeper": 8235,
      "Part": 8236,
      "Ġhel": 8237,
      "usive": 8238,
      "Ġpepper": 8239,
      "ateful": 8240,
      "Ġaircraft": 8241,
      "Ġcontrovers": 8242,
      "ĠCab": 8243,
      "Ġreturning": 8244,
      "Ġham": 8245,
      "ĠPsych": 8246,
      "Ġvessel": 8247,
      "Ġtraveling": 8248,
      "68": 8249,
      "books": 8250,
      "ĠLLC": 8251,
      "isted": 8252,
      "ĠPrime": 8253,
      "Ġsingles": 8254,
      "Ġgained": 8255,
      "Ġinitially": 8256,
      "67": 8257,
      "ĠDun": 8258,
      "aska": 8259,
      "vas": 8260,
      "Ġclosing": 8261,
      "ĠSales": 8262,
      "ĠSat": 8263,
      "irus": 8264,
      "Ġoccurs": 8265,
      "brid": 8266,
      "ĠPersonal": 8267,
      "Ġrefund": 8268,
      "Ġdepression": 8269,
      "Ġtournament": 8270,
      "rite": 8271,
      "Ġcopyright": 8272,
      "Ġstrongly": 8273,
      "Ġequipped": 8274,
      "ĠGarden": 8275,
      "ped": 8276,
      "Pub": 8277,
      "zed": 8278,
      "ali": 8279,
      "Ġapplicable": 8280,
      "Ġyard": 8281,
      "igation": 8282,
      "ĠArizona": 8283,
      "ĠHollywood": 8284,
      "ĠCase": 8285,
      "Ġbutt": 8286,
      "Ġpointed": 8287,
      "Ġlect": 8288,
      "Ġbills": 8289,
      "othe": 8290,
      "Ġlesson": 8291,
      "Ġelected": 8292,
      "rug": 8293,
      "Sec": 8294,
      "ĠSmart": 8295,
      "AND": 8296,
      "ials": 8297,
      "Ġcasual": 8298,
      "Ġparticipation": 8299,
      "Ġsections": 8300,
      "==": 8301,
      "ĠSection": 8302,
      "season": 8303,
      "Ġentering": 8304,
      "Ġrural": 8305,
      "oes": 8306,
      "Ġstages": 8307,
      "Ġdrag": 8308,
      "ĠSteel": 8309,
      "Ġsuffer": 8310,
      "Ġpandemic": 8311,
      "orous": 8312,
      "Ġemails": 8313,
      "ĠBit": 8314,
      "Ġindicate": 8315,
      "Ġlegit": 8316,
      "ught": 8317,
      "Car": 8318,
      "days": 8319,
      "ERE": 8320,
      "Ġequally": 8321,
      "Ġplane": 8322,
      "Ġuncertain": 8323,
      "Ġforecast": 8324,
      "Ġchest": 8325,
      "Ġclassroom": 8326,
      "liers": 8327,
      "Whe": 8328,
      "erving": 8329,
      "Ġpassword": 8330,
      "ĠConnect": 8331,
      "Ġtracking": 8332,
      "Ġthousand": 8333,
      "ĠBrad": 8334,
      "isdom": 8335,
      "ardens": 8336,
      "ĠName": 8337,
      "Ġrapidly": 8338,
      "rieved": 8339,
      "OK": 8340,
      "Ġacquis": 8341,
      "ormal": 8342,
      "Ġexhaust": 8343,
      "ĠCN": 8344,
      "ashes": 8345,
      "Ġimprovements": 8346,
      "ĠMess": 8347,
      "Ġflying": 8348,
      "site": 8349,
      "Ġgambling": 8350,
      "Ġconcert": 8351,
      ")|": 8352,
      "Ġprohib": 8353,
      "ĠAwards": 8354,
      "ĠCarl": 8355,
      ".||": 8356,
      "Ġdrinks": 8357,
      "Co": 8358,
      "Ġintegration": 8359,
      "cker": 8360,
      "Ġloose": 8361,
      "ĠMD": 8362,
      "ĠSpain": 8363,
      "Ġvice": 8364,
      "ĠWi": 8365,
      "FA": 8366,
      "Ġjur": 8367,
      "Ġbone": 8368,
      "Ġdollar": 8369,
      "ensus": 8370,
      "Ġtill": 8371,
      "Ġmole": 8372,
      "Ġpp": 8373,
      "nce": 8374,
      "Ġmassage": 8375,
      "Inst": 8376,
      "ĠAdam": 8377,
      "Ġemployer": 8378,
      "Ġaband": 8379,
      "Ġunknown": 8380,
      "ĠCP": 8381,
      "Ġmeets": 8382,
      "Ġjudgment": 8383,
      "Ġvegetables": 8384,
      "Ġchildhood": 8385,
      "Ġlift": 8386,
      "ĠFred": 8387,
      "Ġentitled": 8388,
      "cal": 8389,
      "Ã¼": 8390,
      "wart": 8391,
      "ĠResp": 8392,
      "Ġcalm": 8393,
      "Ġevolution": 8394,
      "Ġ($": 8395,
      "wan": 8396,
      "apore": 8397,
      "ĠCasino": 8398,
      "cut": 8399,
      "Ġrepresented": 8400,
      "Ġgreatly": 8401,
      "57": 8402,
      "Ġminimal": 8403,
      "icket": 8404,
      "eping": 8405,
      "Ġelectricity": 8406,
      "Ġadopted": 8407,
      "gent": 8408,
      "ordan": 8409,
      "atell": 8410,
      "Ġloyal": 8411,
      "ĠOfficer": 8412,
      "Ġgym": 8413,
      "Ġwanting": 8414,
      "ĠTech": 8415,
      "Ġ42": 8416,
      "ĠTreat": 8417,
      "ĠDNA": 8418,
      "Ġcontaining": 8419,
      "ĠMah": 8420,
      "VER": 8421,
      "Ġobjective": 8422,
      "Ġbuyers": 8423,
      "ĠSenior": 8424,
      "Ġnewspaper": 8425,
      "Ġvolunteers": 8426,
      "Ġwake": 8427,
      "ĠLew": 8428,
      "Ġocean": 8429,
      "Ġsmoke": 8430,
      "Ġengaging": 8431,
      "ĠDam": 8432,
      "58": 8433,
      "iah": 8434,
      "Ġemotions": 8435,
      "ĠCountry": 8436,
      "Ġconclusion": 8437,
      "ĠSS": 8438,
      "bow": 8439,
      "olis": 8440,
      "Ġcolon": 8441,
      "iler": 8442,
      "400": 8443,
      "ĠFall": 8444,
      "usal": 8445,
      "acher": 8446,
      "Ġseeds": 8447,
      "ĠUnfortunately": 8448,
      "ĠNFL": 8449,
      "was": 8450,
      "Ġdiversity": 8451,
      "Ġworkshop": 8452,
      "yes": 8453,
      "Ġattitude": 8454,
      "ĠAgency": 8455,
      "ĠDark": 8456,
      "Ġmistake": 8457,
      "dis": 8458,
      "CS": 8459,
      "Ġdiabetes": 8460,
      "ilipp": 8461,
      "Ġminister": 8462,
      "Ġ1997": 8463,
      "Ġfranch": 8464,
      "Ġnights": 8465,
      "Ġarmy": 8466,
      "ĠNic": 8467,
      "ĠBang": 8468,
      "Ġtape": 8469,
      "Ġphenomen": 8470,
      "Ġlip": 8471,
      "ĠEastern": 8472,
      "Ġconcepts": 8473,
      "ccer": 8474,
      "ĠMiami": 8475,
      "ĠUr": 8476,
      "una": 8477,
      "ador": 8478,
      "ĠKorea": 8479,
      "ĠFoot": 8480,
      "orses": 8481,
      "ĠLi": 8482,
      "bro": 8483,
      "igen": 8484,
      "ington": 8485,
      "ĠCivil": 8486,
      "ĠIllinois": 8487,
      "Ġassistant": 8488,
      "Ġcalendar": 8489,
      "Ġbasketball": 8490,
      "Ġattempts": 8491,
      "ĠRadio": 8492,
      "enth": 8493,
      "Ġpricing": 8494,
      "burgh": 8495,
      "Ġexhibition": 8496,
      "eness": 8497,
      "vard": 8498,
      "alty": 8499,
      "ĠTele": 8500,
      "ĠProdu": 8501,
      "alo": 8502,
      "aters": 8503,
      "ĠDO": 8504,
      "ĠGreek": 8505,
      "ocracy": 8506,
      "ĠSoftware": 8507,
      "zes": 8508,
      "ĠVegas": 8509,
      "Ġapplying": 8510,
      "Ġgap": 8511,
      "Ġpreparing": 8512,
      "Ġpocket": 8513,
      "Ġplain": 8514,
      "epend": 8515,
      "Ġ49": 8516,
      "Ġriding": 8517,
      "eties": 8518,
      "Ġscores": 8519,
      "dated": 8520,
      "Ġstir": 8521,
      "ĠNeed": 8522,
      "ĠRos": 8523,
      "Ġasks": 8524,
      "Ġreveal": 8525,
      "ĠBru": 8526,
      "Ġstom": 8527,
      "Ġintention": 8528,
      "ĠNick": 8529,
      "Ġpersonnel": 8530,
      "ĠâĢĻ": 8531,
      "HA": 8532,
      "ilton": 8533,
      "52": 8534,
      "ifting": 8535,
      "Ġsentence": 8536,
      "ĠWebsite": 8537,
      "df": 8538,
      "Ġheading": 8539,
      "Ġprayer": 8540,
      "Ġokay": 8541,
      "Ġauthentic": 8542,
      "Ġfalls": 8543,
      "Ġdowntown": 8544,
      "iffe": 8545,
      "Ġstayed": 8546,
      "Ġgarage": 8547,
      "Ġspecialist": 8548,
      "eters": 8549,
      "Ġbaking": 8550,
      "ifer": 8551,
      "Ġessentially": 8552,
      "regon": 8553,
      "Ġaccessories": 8554,
      "ĠCapital": 8555,
      "ĠMs": 8556,
      "Ġpig": 8557,
      "low": 8558,
      "ĠÎ": 8559,
      "Ġsubstantial": 8560,
      "Ġfrustr": 8561,
      "iour": 8562,
      "ĠDavis": 8563,
      "ĠPS": 8564,
      "Ġ1980": 8565,
      "Ġfarmers": 8566,
      "Ġassault": 8567,
      "Ġchecking": 8568,
      "Ġtherap": 8569,
      "Ġgate": 8570,
      "LS": 8571,
      "oked": 8572,
      "Â·": 8573,
      "ĠHarry": 8574,
      "Ġwarning": 8575,
      "ĠAdditionally": 8576,
      "Ġtie": 8577,
      "inating": 8578,
      "Ġsurve": 8579,
      "Best": 8580,
      "Ġinvestments": 8581,
      "Ġcoup": 8582,
      "ĠLED": 8583,
      "âĢ³": 8584,
      "Ġupgrade": 8585,
      "Ġcann": 8586,
      "Ġadvantages": 8587,
      "Ġopens": 8588,
      "onic": 8589,
      "Ġgrace": 8590,
      "Ġspray": 8591,
      "Ġrespectively": 8592,
      "Ġroads": 8593,
      "Ġrepresentative": 8594,
      "Ã³": 8595,
      "ĠLatin": 8596,
      "Ġreaching": 8597,
      "ĠRoman": 8598,
      "Ġfocusing": 8599,
      "Ġdeck": 8600,
      "ĠCommon": 8601,
      "pson": 8602,
      "Ġlegend": 8603,
      "CO": 8604,
      "Tra": 8605,
      "Will": 8606,
      "nesota": 8607,
      "Ġspeaker": 8608,
      "ĠLearning": 8609,
      "ĠBrian": 8610,
      "Sim": 8611,
      "Ġdispl": 8612,
      "Ġcomputers": 8613,
      "Ġinstruction": 8614,
      "da": 8615,
      "Ġratio": 8616,
      "Ġposting": 8617,
      "Ġflower": 8618,
      "Ġma": 8619,
      "ĠCro": 8620,
      "ĠBeing": 8621,
      "Ġcourts": 8622,
      "Ġarray": 8623,
      "87": 8624,
      "ĠFa": 8625,
      "ĠEth": 8626,
      "Ġchronic": 8627,
      "aka": 8628,
      "Ġbomb": 8629,
      "izabeth": 8630,
      "Ġkilling": 8631,
      "Ġblend": 8632,
      "allas": 8633,
      "ĠGuard": 8634,
      "Ġsorry": 8635,
      "ds": 8636,
      "Ġsatisfaction": 8637,
      "tery": 8638,
      "umer": 8639,
      "Ġlifetime": 8640,
      "ĠMos": 8641,
      "Ġslots": 8642,
      "ĠRen": 8643,
      "ĠSwed": 8644,
      "ĠNumber": 8645,
      "Ġtooth": 8646,
      "Ġindicated": 8647,
      "Ġdisplayed": 8648,
      "Ġ1996": 8649,
      "Ġcombat": 8650,
      "Ġspa": 8651,
      "Ġceremony": 8652,
      "ĠHouston": 8653,
      "bered": 8654,
      "Ġporn": 8655,
      "Ġopposition": 8656,
      "ĠIII": 8657,
      "Ġresort": 8658,
      "lections": 8659,
      "je": 8660,
      "Ġnations": 8661,
      "ĠDespite": 8662,
      "ĠDri": 8663,
      "ificial": 8664,
      "Ġactor": 8665,
      "ritten": 8666,
      "odge": 8667,
      "Ġsecondary": 8668,
      "ĠNatural": 8669,
      "sen": 8670,
      "month": 8671,
      "ĠÂ©": 8672,
      "ĠMiller": 8673,
      "Rem": 8674,
      "ĠProfessional": 8675,
      "%,": 8676,
      "Ġattach": 8677,
      "ĠCON": 8678,
      "Ġwireless": 8679,
      "nell": 8680,
      "adelph": 8681,
      "heast": 8682,
      "Ġequivalent": 8683,
      "Ġconsent": 8684,
      "Ġinstitution": 8685,
      "Ġimper": 8686,
      "power": 8687,
      "ĠLas": 8688,
      "ĠLat": 8689,
      "usher": 8690,
      "child": 8691,
      "Ġstruggling": 8692,
      "ĠMembers": 8693,
      "Ġraising": 8694,
      "ĠUSB": 8695,
      "Ġorient": 8696,
      "Ġindu": 8697,
      "Ġstring": 8698,
      "sylv": 8699,
      "Ġenthusi": 8700,
      "ART": 8701,
      "Ġpul": 8702,
      "ĠPerhaps": 8703,
      "ĠHold": 8704,
      "ĠSir": 8705,
      "acon": 8706,
      "theless": 8707,
      "Ġbaseball": 8708,
      "jection": 8709,
      "Ġorganis": 8710,
      "iary": 8711,
      "Ġfewer": 8712,
      "ĠShop": 8713,
      "Ġtrips": 8714,
      "Ġtap": 8715,
      "Ġpoker": 8716,
      "ĠWithout": 8717,
      "UM": 8718,
      "Ġgovernments": 8719,
      "looking": 8720,
      "Ġwise": 8721,
      "Ġgorgeous": 8722,
      "quis": 8723,
      "ervations": 8724,
      "ĠKevin": 8725,
      "Lear": 8726,
      "fers": 8727,
      "Ġtransactions": 8728,
      "Ġinsights": 8729,
      "elry": 8730,
      "Ġvoters": 8731,
      "ĠTal": 8732,
      "uten": 8733,
      "Ġpride": 8734,
      "Ġfits": 8735,
      "ĠStock": 8736,
      "ĠTool": 8737,
      "Ġinspe": 8738,
      "Ġlisting": 8739,
      "ĠCredit": 8740,
      "ulpt": 8741,
      "step": 8742,
      "Ġswimming": 8743,
      "onder": 8744,
      "Ġerrors": 8745,
      "Ġrequested": 8746,
      "Ġinteraction": 8747,
      "ĠEvent": 8748,
      "proof": 8749,
      "Ġalter": 8750,
      "Ġneut": 8751,
      "Ġhosted": 8752,
      "Ġflexibility": 8753,
      "Ġdismiss": 8754,
      "Ġstations": 8755,
      "Ġpregnancy": 8756,
      "ĠViet": 8757,
      "ortion": 8758,
      "ĠDemocratic": 8759,
      "Ġunusual": 8760,
      "Ġadmit": 8761,
      "roller": 8762,
      "swered": 8763,
      "Two": 8764,
      "Ġfounder": 8765,
      "aret": 8766,
      "omething": 8767,
      "Ġasset": 8768,
      "Ġtied": 8769,
      "Ġpacked": 8770,
      "xx": 8771,
      "Ġscope": 8772,
      "Ġcm": 8773,
      "Ġlanguages": 8774,
      "Ġaccuracy": 8775,
      "Ġlob": 8776,
      "Ġhotels": 8777,
      "ĠAction": 8778,
      "adelphia": 8779,
      "Ġstudying": 8780,
      "RL": 8781,
      "Ġinterviews": 8782,
      "Ġprotocol": 8783,
      "Ġwaters": 8784,
      "gged": 8785,
      "ĠEmer": 8786,
      "Ġadvent": 8787,
      "ĠVery": 8788,
      "Ġantib": 8789,
      "gel": 8790,
      "Ġopposed": 8791,
      "ĠOK": 8792,
      "Ġadmitted": 8793,
      "Ġrum": 8794,
      "Ġgene": 8795,
      "53": 8796,
      "Ġcorn": 8797,
      "Ġenemy": 8798,
      "Ġtemporary": 8799,
      "Ġmaintained": 8800,
      "rets": 8801,
      "Ġmedication": 8802,
      "Ġsurvive": 8803,
      "RC": 8804,
      "ĠHas": 8805,
      "pany": 8806,
      "ipt": 8807,
      "ĠMother": 8808,
      "Ġexists": 8809,
      "Ġorange": 8810,
      "ĠPalest": 8811,
      "aintiff": 8812,
      "ĠPu": 8813,
      "Ġperformances": 8814,
      "Ġdent": 8815,
      "Ġexceptional": 8816,
      "unicip": 8817,
      "organ": 8818,
      "Back": 8819,
      "ĠIde": 8820,
      "ĠCapt": 8821,
      "2013": 8822,
      "Ġgraphics": 8823,
      "Ġacquired": 8824,
      "sylvania": 8825,
      "ira": 8826,
      "Ġdishes": 8827,
      "Ġvisits": 8828,
      "Jan": 8829,
      "UD": 8830,
      "Ġintroduce": 8831,
      "Ġcontributions": 8832,
      "Ġpackages": 8833,
      "ĠLA": 8834,
      "Ġsegment": 8835,
      "world": 8836,
      "ĠCloud": 8837,
      "Ġfocuses": 8838,
      "ckets": 8839,
      "GA": 8840,
      "icking": 8841,
      "ĠPur": 8842,
      "Ġdanger": 8843,
      "aza": 8844,
      "ĠPA": 8845,
      "Ġprinting": 8846,
      "Ġ~": 8847,
      "Ġly": 8848,
      "sex": 8849,
      "Ġcontracts": 8850,
      "Ġpushed": 8851,
      "Ġcomprom": 8852,
      "Ġstudied": 8853,
      "ffective": 8854,
      "Ġmoral": 8855,
      "'.": 8856,
      "ĠÂ»": 8857,
      "hour": 8858,
      "mo": 8859,
      "athered": 8860,
      "Ġsoldiers": 8861,
      "ĠEric": 8862,
      "charge": 8863,
      "Find": 8864,
      "ĠFinally": 8865,
      "iform": 8866,
      "Ġprivile": 8867,
      "Ġfest": 8868,
      "awa": 8869,
      "ĠLiving": 8870,
      "Each": 8871,
      "Ġwondering": 8872,
      "rer": 8873,
      "Ġfrequency": 8874,
      "ko": 8875,
      "terior": 8876,
      "Ġclock": 8877,
      "ĠBeaut": 8878,
      "ĠToronto": 8879,
      "Ġoffensive": 8880,
      "Ġsomehow": 8881,
      "Ġworried": 8882,
      "Ġracing": 8883,
      "Ġdemonstrate": 8884,
      "ĠDream": 8885,
      "Ġperiods": 8886,
      "Ġbetting": 8887,
      ",'": 8888,
      "ourse": 8889,
      "Ġske": 8890,
      "Ġpromoting": 8891,
      "Ġdamaged": 8892,
      "ĠClinton": 8893,
      "ĠBad": 8894,
      "Ġrecre": 8895,
      "oir": 8896,
      "through": 8897,
      "ked": 8898,
      "Ġbeneficial": 8899,
      "andy": 8900,
      "ludes": 8901,
      "People": 8902,
      "Wor": 8903,
      "Ġlosses": 8904,
      "Ġrestrictions": 8905,
      "Ġcombine": 8906,
      "Ġmold": 8907,
      "Ġdrama": 8908,
      "Ġresponses": 8909,
      "ainless": 8910,
      "fa": 8911,
      "Ġphilosophy": 8912,
      "ĠProcess": 8913,
      "Ġlens": 8914,
      "Ġnose": 8915,
      "Ġweird": 8916,
      "rape": 8917,
      "ĠBrook": 8918,
      "sect": 8919,
      "54": 8920,
      "vol": 8921,
      "Ġfilling": 8922,
      "Aut": 8923,
      "ĠDiego": 8924,
      "wear": 8925,
      "Ġremem": 8926,
      "Ġdeploy": 8927,
      "Ġmg": 8928,
      "Ġtoler": 8929,
      "2012": 8930,
      "Ġvolunteer": 8931,
      "Ġpermit": 8932,
      "gorith": 8933,
      "Ġbrilliant": 8934,
      "Ġwhilst": 8935,
      "Cons": 8936,
      "Ġliability": 8937,
      "intend": 8938,
      "Ġcontribution": 8939,
      "iley": 8940,
      "ĠAI": 8941,
      "Ġunexpected": 8942,
      "Ġprime": 8943,
      "owa": 8944,
      "lee": 8945,
      "makers": 8946,
      "Ġmuscles": 8947,
      "amsung": 8948,
      "Ġminds": 8949,
      "ĠGM": 8950,
      "Ġtelephone": 8951,
      "Ġaims": 8952,
      "Ġresident": 8953,
      "oom": 8954,
      "Ġaccused": 8955,
      "ĠArticle": 8956,
      "mble": 8957,
      "Ġholidays": 8958,
      "cribed": 8959,
      "ĠWilson": 8960,
      "Ġcircuit": 8961,
      "Ġcoat": 8962,
      "Ġdecline": 8963,
      "ĠOak": 8964,
      "ĠAge": 8965,
      "ĠGro": 8966,
      "inks": 8967,
      "Ġinteractive": 8968,
      "Ġencounter": 8969,
      "Ġcelebration": 8970,
      "ĠStudent": 8971,
      "Ġdelivering": 8972,
      "Ġheavily": 8973,
      "Ġcameras": 8974,
      "Ġspeakers": 8975,
      "EX": 8976,
      "ĠBern": 8977,
      "ĠPakistan": 8978,
      "Ġstruck": 8979,
      "Ġemotion": 8980,
      "Ġkiss": 8981,
      "ĠGolden": 8982,
      "ĠAnth": 8983,
      "sis": 8984,
      "Ġblow": 8985,
      "Ġ120": 8986,
      "ĠColumbia": 8987,
      "Ġdescribes": 8988,
      "ĠCustomer": 8989,
      "Ġfactory": 8990,
      "Ġsed": 8991,
      "ĠQuality": 8992,
      "Ġemployed": 8993,
      "Ġsubsid": 8994,
      "Ġentrance": 8995,
      "ĠSelect": 8996,
      "Ġguilty": 8997,
      "Ġcompete": 8998,
      "Ġhighlights": 8999,
      "DP": 9000,
      "Ġtargeted": 9001,
      "riculum": 9002,
      "rowse": 9003,
      "who": 9004,
      "Ġcorrectly": 9005,
      "Ġexport": 9006,
      "ĠOl": 9007,
      "kel": 9008,
      "Ġprovision": 9009,
      "Ġsouthern": 9010,
      "Ġchecked": 9011,
      "Ġhadn": 9012,
      "Ġsolo": 9013,
      "ĠSex": 9014,
      "ĠMember": 9015,
      "Ġemployers": 9016,
      "Ġhearts": 9017,
      "Ġ1995": 9018,
      "Ġnerv": 9019,
      "ĠIce": 9020,
      "Ġpodcast": 9021,
      "ĠiPad": 9022,
      "Ġhide": 9023,
      "ĠBudd": 9024,
      "after": 9025,
      "Ġcups": 9026,
      "bra": 9027,
      "angers": 9028,
      "Ġsatisfied": 9029,
      "ĠÂ·": 9030,
      "Ġsomebody": 9031,
      "Ġprize": 9032,
      "Ġvenue": 9033,
      "ĠStandard": 9034,
      "Ġattending": 9035,
      "criptions": 9036,
      "Ġformula": 9037,
      "tail": 9038,
      "pay": 9039,
      "ĠBed": 9040,
      "Ġpregnant": 9041,
      "Ġanswered": 9042,
      "wich": 9043,
      "Ġdiscussions": 9044,
      "ronics": 9045,
      "urities": 9046,
      "utter": 9047,
      "CL": 9048,
      "Ġmild": 9049,
      "oding": 9050,
      "ĠSingapore": 9051,
      "Ġaddresses": 9052,
      "ĠFilm": 9053,
      "Ġhes": 9054,
      "Ġbid": 9055,
      "Ġcodes": 9056,
      "Ġlake": 9057,
      "Ġarrival": 9058,
      "style": 9059,
      "ĠStory": 9060,
      "Ġemerging": 9061,
      "Ġmistakes": 9062,
      "ĠRemember": 9063,
      "Ġboards": 9064,
      "ĠSeattle": 9065,
      "ĠOx": 9066,
      "limited": 9067,
      "Ġconventional": 9068,
      "ĠFac": 9069,
      "Ġoffense": 9070,
      "Ġgrateful": 9071,
      "Ġstability": 9072,
      "ĠRog": 9073,
      "Ġappointed": 9074,
      "Ġalign": 9075,
      "Ġvoc": 9076,
      "Ġtransmission": 9077,
      "Ġdefensive": 9078,
      "ĠAng": 9079,
      "etch": 9080,
      "ĠMinnesota": 9081,
      "Ġcow": 9082,
      "Ġbuff": 9083,
      "viously": 9084,
      "Good": 9085,
      "Ġhaz": 9086,
      "ĠTony": 9087,
      "upid": 9088,
      "Ġrarely": 9089,
      "vironments": 9090,
      "anguage": 9091,
      "Ġlaptop": 9092,
      "Oct": 9093,
      "vals": 9094,
      "Ġinfect": 9095,
      "ĠChange": 9096,
      "Ġassigned": 9097,
      "Ġdesper": 9098,
      "Ġouts": 9099,
      "Ġcul": 9100,
      "edge": 9101,
      "iences": 9102,
      "ĠOregon": 9103,
      "stract": 9104,
      "Ġconsultation": 9105,
      "mates": 9106,
      "Ġbands": 9107,
      "Ġclubs": 9108,
      "Ã¶": 9109,
      "ĠLevel": 9110,
      "oric": 9111,
      "high": 9112,
      "Ġtemperatures": 9113,
      "imp": 9114,
      "Ġlicensed": 9115,
      "heim": 9116,
      "Ġuniverse": 9117,
      "Ġproved": 9118,
      "ĠChall": 9119,
      "Ġfingers": 9120,
      "Ġpromotion": 9121,
      "HT": 9122,
      "Ġperm": 9123,
      "Ġfur": 9124,
      "Ġpills": 9125,
      "Ġintellectual": 9126,
      "ĠShare": 9127,
      "Ġpeak": 9128,
      "ĠBooks": 9129,
      "Ġguaranteed": 9130,
      "Ġscrew": 9131,
      "Ġpackaging": 9132,
      "Ġhoney": 9133,
      "ĠStephen": 9134,
      "Ġtestim": 9135,
      "Ġtrim": 9136,
      "Ġbranch": 9137,
      "Ġdefine": 9138,
      "ĠMom": 9139,
      "ucks": 9140,
      "Ġmanif": 9141,
      "udes": 9142,
      "BM": 9143,
      "isd": 9144,
      "Ġwestern": 9145,
      "Ġproducer": 9146,
      "Ġyoga": 9147,
      "Ġhanging": 9148,
      "Ġannouncement": 9149,
      "Ġcurrency": 9150,
      "raine": 9151,
      "Ġswing": 9152,
      "ĠStone": 9153,
      "Ġsinging": 9154,
      "ĠHell": 9155,
      "Ġtrem": 9156,
      "Ġheating": 9157,
      "visor": 9158,
      "ĠAfghan": 9159,
      "ugs": 9160,
      "unter": 9161,
      "istent": 9162,
      "ĠWas": 9163,
      "Ġstatistics": 9164,
      "Ġrecruit": 9165,
      "Ġtalented": 9166,
      "ockey": 9167,
      "Comm": 9168,
      "Ġcrash": 9169,
      "Ġoral": 9170,
      "Down": 9171,
      "Ġhoriz": 9172,
      "Ġcreativity": 9173,
      "72": 9174,
      "Ġsetup": 9175,
      "Ġoverse": 9176,
      "ĠMu": 9177,
      "ĠProtection": 9178,
      "http": 9179,
      "Ġbold": 9180,
      "ĠPennsylvania": 9181,
      "Ġfiction": 9182,
      "Ġcampaigns": 9183,
      "Ġvert": 9184,
      "Ġownership": 9185,
      "cor": 9186,
      "Ġparticipating": 9187,
      "Ġanniversary": 9188,
      "Ġspir": 9189,
      "Ġinvention": 9190,
      "axy": 9191,
      "Ġtargets": 9192,
      "ĠRub": 9193,
      "Ġsinger": 9194,
      "Ġestimate": 9195,
      "Ġresidence": 9196,
      "Ġdil": 9197,
      "Ġmining": 9198,
      "Ġdivided": 9199,
      "Ġgolden": 9200,
      "ĠMoney": 9201,
      "novation": 9202,
      "%)": 9203,
      "reement": 9204,
      "Ġshirt": 9205,
      "Ġ250": 9206,
      "Ġmyth": 9207,
      "ĠForest": 9208,
      "Ġovercome": 9209,
      "ĠStudy": 9210,
      "ractions": 9211,
      "63": 9212,
      "Ġdesigners": 9213,
      "Ġhip": 9214,
      "Ġproport": 9215,
      "ji": 9216,
      "Ġsurge": 9217,
      "Ġcomplim": 9218,
      "zzle": 9219,
      "Ġimplemented": 9220,
      "Ġphotographs": 9221,
      "Ġ64": 9222,
      "ĠCou": 9223,
      "Ġdifficulty": 9224,
      "agra": 9225,
      "ĠSquare": 9226,
      "Ġequity": 9227,
      "obe": 9228,
      "Ġletting": 9229,
      "Ġneuro": 9230,
      "Ġofficially": 9231,
      "ĠAirport": 9232,
      "Ġyours": 9233,
      "abil": 9234,
      "51": 9235,
      "Ġprinciple": 9236,
      "Ġcoaching": 9237,
      "olid": 9238,
      "Ġroots": 9239,
      "Ġabilities": 9240,
      "ĠDemocrats": 9241,
      ",âĢĻ": 9242,
      "Ġmask": 9243,
      "ĠHIV": 9244,
      "Ġconvert": 9245,
      "ĠNO": 9246,
      "ordinary": 9247,
      "esides": 9248,
      "anth": 9249,
      "Ġholes": 9250,
      "ÑĤ": 9251,
      "Ġimmune": 9252,
      "Ġbreaks": 9253,
      "Ġexploring": 9254,
      "unes": 9255,
      "ĠEX": 9256,
      "Ġregulatory": 9257,
      "Ġtube": 9258,
      "Ġimportantly": 9259,
      "ĠBrother": 9260,
      "Ġinitiatives": 9261,
      "Ġthemes": 9262,
      "mod": 9263,
      "ĠPrint": 9264,
      "ounce": 9265,
      "agan": 9266,
      "Ġdecrease": 9267,
      "Ġfib": 9268,
      "Ġautomatic": 9269,
      "ĠLady": 9270,
      "Ġlayers": 9271,
      "onymous": 9272,
      "Ġfiber": 9273,
      "ĠBull": 9274,
      "gener": 9275,
      "there": 9276,
      "ĠCry": 9277,
      "Ġexplo": 9278,
      "Ġladies": 9279,
      "ĠTheatre": 9280,
[...]
